unsigned char cnn_int8_tflite[] = {
  0x20, 0x00, 0x00, 0x00, 0x54, 0x46, 0x4c, 0x33, 0x00, 0x00, 0x00, 0x00,
  0x14, 0x00, 0x20, 0x00, 0x1c, 0x00, 0x18, 0x00, 0x14, 0x00, 0x10, 0x00,
  0x0c, 0x00, 0x00, 0x00, 0x08, 0x00, 0x04, 0x00, 0x14, 0x00, 0x00, 0x00,
  0x1c, 0x00, 0x00, 0x00, 0x8c, 0x00, 0x00, 0x00, 0xe4, 0x00, 0x00, 0x00,
  0x68, 0x17, 0x00, 0x00, 0x78, 0x17, 0x00, 0x00, 0x4c, 0x2b, 0x00, 0x00,
  0x03, 0x00, 0x00, 0x00, 0x01, 0x00, 0x00, 0x00, 0x04, 0x00, 0x00, 0x00,
  0x36, 0xe8, 0xff, 0xff, 0x0c, 0x00, 0x00, 0x00, 0x1c, 0x00, 0x00, 0x00,
  0x3c, 0x00, 0x00, 0x00, 0x0f, 0x00, 0x00, 0x00, 0x73, 0x65, 0x72, 0x76,
  0x69, 0x6e, 0x67, 0x5f, 0x64, 0x65, 0x66, 0x61, 0x75, 0x6c, 0x74, 0x00,
  0x01, 0x00, 0x00, 0x00, 0x04, 0x00, 0x00, 0x00, 0x90, 0xff, 0xff, 0xff,
  0x14, 0x00, 0x00, 0x00, 0x04, 0x00, 0x00, 0x00, 0x08, 0x00, 0x00, 0x00,
  0x6f, 0x75, 0x74, 0x70, 0x75, 0x74, 0x5f, 0x30, 0x00, 0x00, 0x00, 0x00,
  0x01, 0x00, 0x00, 0x00, 0x04, 0x00, 0x00, 0x00, 0x22, 0xe9, 0xff, 0xff,
  0x04, 0x00, 0x00, 0x00, 0x0e, 0x00, 0x00, 0x00, 0x6b, 0x65, 0x72, 0x61,
  0x73, 0x5f, 0x74, 0x65, 0x6e, 0x73, 0x6f, 0x72, 0x5f, 0x36, 0x00, 0x00,
  0x02, 0x00, 0x00, 0x00, 0x34, 0x00, 0x00, 0x00, 0x04, 0x00, 0x00, 0x00,
  0xdc, 0xff, 0xff, 0xff, 0x17, 0x00, 0x00, 0x00, 0x04, 0x00, 0x00, 0x00,
  0x13, 0x00, 0x00, 0x00, 0x43, 0x4f, 0x4e, 0x56, 0x45, 0x52, 0x53, 0x49,
  0x4f, 0x4e, 0x5f, 0x4d, 0x45, 0x54, 0x41, 0x44, 0x41, 0x54, 0x41, 0x00,
  0x08, 0x00, 0x0c, 0x00, 0x08, 0x00, 0x04, 0x00, 0x08, 0x00, 0x00, 0x00,
  0x16, 0x00, 0x00, 0x00, 0x04, 0x00, 0x00, 0x00, 0x13, 0x00, 0x00, 0x00,
  0x6d, 0x69, 0x6e, 0x5f, 0x72, 0x75, 0x6e, 0x74, 0x69, 0x6d, 0x65, 0x5f,
  0x76, 0x65, 0x72, 0x73, 0x69, 0x6f, 0x6e, 0x00, 0x18, 0x00, 0x00, 0x00,
  0x80, 0x16, 0x00, 0x00, 0x78, 0x16, 0x00, 0x00, 0x60, 0x16, 0x00, 0x00,
  0x44, 0x16, 0x00, 0x00, 0x24, 0x16, 0x00, 0x00, 0xd4, 0x15, 0x00, 0x00,
  0x44, 0x14, 0x00, 0x00, 0xd4, 0x13, 0x00, 0x00, 0x44, 0x06, 0x00, 0x00,
  0xf4, 0x05, 0x00, 0x00, 0x64, 0x01, 0x00, 0x00, 0x34, 0x01, 0x00, 0x00,
  0xdc, 0x00, 0x00, 0x00, 0xd4, 0x00, 0x00, 0x00, 0xcc, 0x00, 0x00, 0x00,
  0xc4, 0x00, 0x00, 0x00, 0xbc, 0x00, 0x00, 0x00, 0xb4, 0x00, 0x00, 0x00,
  0xac, 0x00, 0x00, 0x00, 0xa4, 0x00, 0x00, 0x00, 0x9c, 0x00, 0x00, 0x00,
  0x94, 0x00, 0x00, 0x00, 0x74, 0x00, 0x00, 0x00, 0x04, 0x00, 0x00, 0x00,
  0xfe, 0xe9, 0xff, 0xff, 0x04, 0x00, 0x00, 0x00, 0x60, 0x00, 0x00, 0x00,
  0x0c, 0x00, 0x00, 0x00, 0x08, 0x00, 0x0e, 0x00, 0x08, 0x00, 0x04, 0x00,
  0x08, 0x00, 0x00, 0x00, 0x10, 0x00, 0x00, 0x00, 0x28, 0x00, 0x00, 0x00,
  0x00, 0x00, 0x06, 0x00, 0x08, 0x00, 0x04, 0x00, 0x06, 0x00, 0x00, 0x00,
  0x04, 0x00, 0x00, 0x00, 0x01, 0x00, 0x00, 0x00, 0xeb, 0x03, 0x00, 0x00,
  0x0c, 0x00, 0x18, 0x00, 0x14, 0x00, 0x10, 0x00, 0x0c, 0x00, 0x04, 0x00,
  0x0c, 0x00, 0x00, 0x00, 0x53, 0x20, 0x55, 0xe0, 0xca, 0xf5, 0x94, 0x71,
  0x02, 0x00, 0x00, 0x00, 0x02, 0x00, 0x00, 0x00, 0x04, 0x00, 0x00, 0x00,
  0x06, 0x00, 0x00, 0x00, 0x32, 0x2e, 0x32, 0x30, 0x2e, 0x30, 0x00, 0x00,
  0x6a, 0xea, 0xff, 0xff, 0x04, 0x00, 0x00, 0x00, 0x10, 0x00, 0x00, 0x00,
  0x31, 0x2e, 0x31, 0x34, 0x2e, 0x30, 0x00, 0x00, 0x00, 0x00, 0x00, 0x00,
  0x00, 0x00, 0x00, 0x00, 0x50, 0xd7, 0xff, 0xff, 0x54, 0xd7, 0xff, 0xff,
  0x58, 0xd7, 0xff, 0xff, 0x5c, 0xd7, 0xff, 0xff, 0x60, 0xd7, 0xff, 0xff,
  0x64, 0xd7, 0xff, 0xff, 0x68, 0xd7, 0xff, 0xff, 0x6c, 0xd7, 0xff, 0xff,
  0x70, 0xd7, 0xff, 0xff, 0xaa, 0xea, 0xff, 0xff, 0x04, 0x00, 0x00, 0x00,
  0x48, 0x00, 0x00, 0x00, 0x48, 0x6c, 0x26, 0x5d, 0x68, 0x3b, 0x7f, 0x3f,
  0x74, 0x7f, 0x27, 0x54, 0x78, 0x14, 0x27, 0x43, 0xf7, 0x7a, 0x81, 0x39,
  0xbb, 0x0d, 0xd4, 0xb9, 0x2a, 0xb7, 0xf4, 0xb3, 0x60, 0x12, 0x81, 0xd0,
  0xc2, 0xac, 0x6a, 0xf7, 0xfd, 0x19, 0xa1, 0x30, 0x05, 0xab, 0x7f, 0x2b,
  0xb2, 0xdd, 0x3a, 0xff, 0x81, 0x57, 0xdc, 0x0d, 0xc0, 0xa7, 0x9d, 0x37,
  0x7f, 0xd1, 0x01, 0x1b, 0x27, 0x16, 0x6f, 0x81, 0xe3, 0x99, 0x01, 0x0c,
  0xc3, 0xa8, 0xf4, 0xf9, 0xfe, 0xea, 0xff, 0xff, 0x04, 0x00, 0x00, 0x00,
  0x20, 0x00, 0x00, 0x00, 0x27, 0x98, 0xff, 0xff, 0xb1, 0x9b, 0xff, 0xff,
  0x00, 0x00, 0x00, 0x00, 0x00, 0x00, 0x00, 0x00, 0xee, 0x01, 0x00, 0x00,
  0x00, 0x00, 0x00, 0x00, 0xbd, 0xa6, 0xff, 0xff, 0xcd, 0x17, 0x00, 0x00,
  0x2a, 0xeb, 0xff, 0xff, 0x04, 0x00, 0x00, 0x00, 0x80, 0x04, 0x00, 0x00,
  0x0e, 0x0b, 0xf5, 0x0c, 0x68, 0x09, 0x01, 0x1b, 0xfb, 0xfa, 0x0c, 0xfc,
  0x19, 0xfc, 0xef, 0x14, 0xf4, 0xed, 0xfc, 0x09, 0x01, 0xfc, 0xef, 0xfd,
  0xf9, 0x03, 0xf3, 0xfd, 0x63, 0xf6, 0xfa, 0x11, 0xf6, 0xff, 0x08, 0x06,
  0x27, 0xfd, 0xff, 0x13, 0x02, 0xf0, 0xfd, 0xfb, 0x16, 0xfd, 0xf5, 0xea,
  0x0b, 0x02, 0x08, 0x05, 0x7f, 0x0b, 0xfd, 0x14, 0x0e, 0x07, 0x03, 0xfe,
  0x38, 0xf8, 0xfe, 0x04, 0x09, 0x0b, 0x0c, 0xf4, 0x0b, 0xf7, 0xf4, 0xfa,
  0x06, 0x07, 0x04, 0xfe, 0x59, 0xfc, 0x09, 0xff, 0x01, 0xfc, 0xff, 0x05,
  0x48, 0x03, 0xfe, 0xf0, 0xff, 0x03, 0x00, 0xff, 0x31, 0xfd, 0xff, 0xe2,
  0x06, 0x03, 0xfc, 0xff, 0x66, 0x00, 0x03, 0xf9, 0x03, 0xfb, 0x05, 0xfe,
  0x4c, 0x01, 0xfa, 0xe4, 0x01, 0xff, 0x04, 0x05, 0x1f, 0x05, 0xfa, 0xda,
  0xfe, 0x03, 0x00, 0x01, 0x7f, 0x01, 0xf9, 0xf3, 0xff, 0xfb, 0x04, 0x02,
  0x52, 0xfd, 0xf1, 0xe3, 0xf5, 0xfc, 0x01, 0x00, 0x0c, 0x01, 0xf9, 0xde,
  0xee, 0xf1, 0xf4, 0xfa, 0xd8, 0xee, 0xc5, 0x3a, 0x0a, 0xf1, 0x05, 0xf6,
  0xee, 0xf5, 0x03, 0x60, 0x1a, 0x04, 0xf9, 0x08, 0x3e, 0xfb, 0x27, 0x7f,
  0xfe, 0xeb, 0x0c, 0xee, 0xd8, 0x0f, 0xde, 0x0b, 0x00, 0xf5, 0xf7, 0xf2,
  0x04, 0xfb, 0x1e, 0x36, 0xf7, 0xf0, 0x04, 0x0c, 0x39, 0xfc, 0x23, 0x6a,
  0xd7, 0xde, 0xf8, 0x0c, 0xd9, 0x0a, 0xff, 0xf6, 0x17, 0xff, 0x05, 0xfd,
  0xcd, 0xf5, 0x11, 0x2c, 0x10, 0x11, 0x0e, 0x0a, 0x48, 0x0e, 0x23, 0x5d,
  0x02, 0x0b, 0x08, 0x06, 0x7b, 0xfe, 0x08, 0xfe, 0xf9, 0x01, 0xf9, 0x04,
  0x76, 0x05, 0xf7, 0x01, 0x05, 0xf5, 0x09, 0xfd, 0x6b, 0xff, 0xf8, 0xfa,
  0x06, 0x07, 0xf7, 0x09, 0x77, 0xfa, 0x03, 0x03, 0x01, 0xff, 0x01, 0xfa,
  0x66, 0xfa, 0xf0, 0xf6, 0xfb, 0xfd, 0x04, 0x02, 0x56, 0x07, 0xf3, 0x02,
  0x0c, 0x01, 0x05, 0xfb, 0x7f, 0xfa, 0x07, 0xed, 0xf6, 0x06, 0x09, 0xfe,
  0x6b, 0x06, 0xf5, 0xf8, 0xfd, 0xff, 0x08, 0xf8, 0x41, 0x09, 0x02, 0xf3,
  0xdd, 0x04, 0xef, 0xed, 0x56, 0x01, 0xfa, 0xf0, 0xfb, 0xf8, 0x05, 0x00,
  0x3c, 0xf9, 0x1b, 0xf2, 0x12, 0x2a, 0x07, 0x00, 0x81, 0x0c, 0x44, 0xfc,
  0xf2, 0xf9, 0xee, 0xf8, 0x4f, 0xf6, 0xd0, 0xe6, 0x0a, 0xf0, 0x16, 0xee,
  0x2f, 0x15, 0x00, 0xe7, 0x1b, 0x21, 0xed, 0x01, 0x9c, 0x13, 0x39, 0xf9,
  0xd8, 0xf2, 0xf2, 0x07, 0x5e, 0xfc, 0xdc, 0xe7, 0xe8, 0x03, 0xf7, 0xf8,
  0x34, 0x12, 0x20, 0xeb, 0x15, 0x05, 0xf0, 0xfb, 0xef, 0xef, 0x36, 0xf5,
  0x0c, 0x04, 0x0c, 0xf6, 0x97, 0xf2, 0xe5, 0x40, 0xec, 0xfd, 0x0f, 0x01,
  0xbe, 0x13, 0xf2, 0x16, 0x0f, 0xeb, 0x00, 0xff, 0xa8, 0x17, 0xea, 0xfa,
  0x0a, 0xec, 0x18, 0xfd, 0x8e, 0xfa, 0xe9, 0x37, 0x0d, 0xec, 0x11, 0x16,
  0xb0, 0x17, 0xe5, 0x47, 0x0e, 0xf5, 0x11, 0xf7, 0x81, 0x12, 0xee, 0xfe,
  0x02, 0x14, 0x13, 0xf8, 0x81, 0xf3, 0xf2, 0x56, 0x09, 0x17, 0x06, 0xed,
  0xb5, 0x03, 0xfd, 0x4d, 0xfd, 0xe8, 0xfe, 0x06, 0x86, 0x0b, 0x16, 0x20,
  0x19, 0xe2, 0x24, 0xda, 0x4f, 0xe1, 0xbf, 0x2e, 0xff, 0xf6, 0x10, 0x0f,
  0x06, 0xe0, 0x15, 0x38, 0xdb, 0xd4, 0xf9, 0xe0, 0x04, 0xea, 0x1a, 0xe1,
  0x2a, 0x25, 0x10, 0x0e, 0xde, 0x28, 0xd5, 0x34, 0xdc, 0xfc, 0x18, 0xe8,
  0xf2, 0xee, 0x18, 0xf8, 0x0a, 0xcd, 0x07, 0xfd, 0x03, 0xed, 0x01, 0xf9,
  0xfb, 0x1c, 0xdb, 0x0e, 0x81, 0xe9, 0xbf, 0x34, 0xe5, 0x06, 0x26, 0x23,
  0x89, 0xdc, 0xcf, 0x40, 0xf8, 0xce, 0xde, 0xdd, 0xd0, 0x23, 0xae, 0xda,
  0x19, 0x11, 0x0f, 0x11, 0x49, 0xeb, 0x04, 0x07, 0x1a, 0x0b, 0x11, 0x13,
  0x67, 0x10, 0xf7, 0x0e, 0xe9, 0xf5, 0x14, 0x14, 0x6d, 0x0b, 0xde, 0x43,
  0x0e, 0xfb, 0x04, 0x13, 0x7f, 0x15, 0xe8, 0x03, 0xee, 0xff, 0xee, 0x0d,
  0x63, 0xec, 0x0b, 0x34, 0x06, 0xff, 0xfc, 0xfd, 0x5c, 0x11, 0xcd, 0x38,
  0xfc, 0xfc, 0x02, 0xfc, 0x63, 0x0f, 0xe2, 0x20, 0x00, 0xf6, 0xfc, 0x16,
  0x52, 0xf1, 0xe4, 0x14, 0xf4, 0xdf, 0xf4, 0xff, 0x2e, 0xf2, 0xd8, 0x2b,
  0xee, 0xef, 0xfe, 0xf3, 0xf7, 0xfb, 0x43, 0x41, 0x01, 0x01, 0xfe, 0x0c,
  0x81, 0xf4, 0x3e, 0x1a, 0x1a, 0x15, 0xf9, 0x04, 0xdd, 0x02, 0x1d, 0xc4,
  0xeb, 0x01, 0x07, 0x0c, 0xf5, 0xf5, 0x19, 0x53, 0xf3, 0xfd, 0x07, 0x02,
  0x9c, 0x04, 0x2d, 0x31, 0xfd, 0x16, 0x0c, 0x0c, 0xc6, 0x0c, 0x1f, 0xf1,
  0xf4, 0xf3, 0x0d, 0xfd, 0xfa, 0x0a, 0xf9, 0x59, 0xf7, 0xf7, 0xfd, 0x07,
  0xbd, 0xf6, 0x23, 0x51, 0xed, 0x0f, 0xf6, 0xf7, 0xce, 0xfd, 0x11, 0xf1,
  0x04, 0x00, 0x02, 0x00, 0x70, 0x03, 0x08, 0x11, 0x04, 0xfc, 0x07, 0x03,
  0x5d, 0x06, 0x07, 0x07, 0xfe, 0x04, 0x06, 0x02, 0x5f, 0x03, 0x00, 0xf2,
  0xfe, 0x00, 0x02, 0xfd, 0x74, 0x00, 0x05, 0x08, 0x05, 0x04, 0xfd, 0x05,
  0x62, 0x01, 0x00, 0xf9, 0xfa, 0xfa, 0x03, 0xfc, 0x4b, 0xff, 0xfa, 0xe5,
  0x07, 0xfc, 0x01, 0xff, 0x7f, 0x03, 0x04, 0xfc, 0x06, 0x03, 0xfd, 0xfc,
  0x6c, 0x07, 0xfc, 0xea, 0xff, 0xf9, 0xf9, 0xff, 0x4a, 0x06, 0xf6, 0xe9,
  0xec, 0xf8, 0x10, 0x0e, 0x02, 0xf7, 0x47, 0xf3, 0x13, 0x14, 0xf2, 0x12,
  0x6a, 0x07, 0x17, 0x01, 0x1a, 0x1c, 0x0d, 0xf3, 0x6b, 0xed, 0x15, 0x13,
  0x00, 0xe7, 0xed, 0xf5, 0x08, 0x00, 0x1c, 0xdb, 0xfa, 0x11, 0x01, 0x14,
  0x3e, 0xfa, 0x16, 0xf1, 0x02, 0x13, 0xfa, 0x08, 0x76, 0x0a, 0x25, 0xf9,
  0xe7, 0xf2, 0x10, 0xfe, 0xe4, 0x0e, 0x24, 0xdd, 0xed, 0x0c, 0xf2, 0x06,
  0x3a, 0xfa, 0x29, 0x07, 0xfd, 0x15, 0xfb, 0x04, 0x7f, 0xfb, 0x13, 0x0b,
  0xe4, 0x00, 0xf4, 0x18, 0x81, 0xf8, 0xd4, 0xe1, 0xd6, 0xea, 0xfb, 0x09,
  0xd6, 0x1b, 0xe5, 0x11, 0xda, 0xd6, 0xf6, 0x0e, 0xe7, 0xf9, 0xe0, 0x2c,
  0xfe, 0xe8, 0x15, 0x08, 0xfc, 0x08, 0xe9, 0x20, 0xf6, 0xe6, 0xeb, 0x03,
  0x39, 0xda, 0x2f, 0x31, 0x0a, 0x04, 0x11, 0xe7, 0x29, 0x0d, 0x03, 0x3d,
  0x06, 0x17, 0xfe, 0xdf, 0x43, 0xf2, 0x20, 0x05, 0x4c, 0x3f, 0x06, 0x0e,
  0x6d, 0x00, 0x28, 0x29, 0x25, 0x00, 0xf2, 0x0a, 0x39, 0x18, 0x26, 0x22,
  0xf7, 0xe6, 0x03, 0xf3, 0x81, 0xe9, 0xea, 0xfa, 0xfc, 0xd8, 0x0b, 0xdb,
  0x8c, 0xdb, 0xe3, 0x05, 0xeb, 0xd8, 0xed, 0x1b, 0x24, 0x1c, 0xe9, 0x2b,
  0xe3, 0xe6, 0x27, 0x1a, 0xf5, 0xdc, 0x18, 0x1f, 0xec, 0xe6, 0xda, 0xfb,
  0x1e, 0xf2, 0x14, 0x14, 0xfb, 0xfa, 0xed, 0x15, 0x11, 0x03, 0xef, 0x37,
  0x23, 0x22, 0xe7, 0x15, 0x0b, 0x15, 0x0b, 0x05, 0x0e, 0x31, 0x20, 0xff,
  0x45, 0x02, 0x07, 0x31, 0x41, 0x24, 0x1e, 0x14, 0x4b, 0xf0, 0x0b, 0x39,
  0xe6, 0x08, 0x03, 0xf7, 0x81, 0x0d, 0xd2, 0xf4, 0xdd, 0xdd, 0xfd, 0xf7,
  0xcf, 0x0e, 0xe3, 0x0e, 0xe1, 0xf1, 0xe8, 0xf8, 0x2b, 0xf7, 0xe2, 0x2b,
  0x05, 0xeb, 0x18, 0xf7, 0xf4, 0x12, 0xf3, 0xed, 0xff, 0xe5, 0xe9, 0xf3,
  0x34, 0x14, 0x02, 0x07, 0xfd, 0x16, 0x03, 0xf9, 0x2d, 0xec, 0x11, 0x10,
  0xf9, 0x0b, 0xf4, 0x02, 0x20, 0xf2, 0x38, 0xe8, 0x2a, 0x27, 0xf2, 0xe7,
  0x43, 0xfe, 0x0c, 0x0a, 0x25, 0x25, 0xf1, 0x1a, 0x4a, 0x06, 0x06, 0x0c,
  0xf7, 0xf6, 0xf8, 0xfe, 0x7f, 0x00, 0xf9, 0xfe, 0x0b, 0x00, 0x05, 0x03,
  0x3c, 0x02, 0x1a, 0xb3, 0x18, 0x16, 0xfd, 0xfd, 0x36, 0xfc, 0x21, 0xe0,
  0xf0, 0xef, 0x03, 0xfd, 0x74, 0x03, 0xf5, 0x05, 0x01, 0xf9, 0x06, 0x07,
  0x46, 0x02, 0x0a, 0xc3, 0x14, 0x11, 0x03, 0xfa, 0x42, 0xfc, 0x12, 0xe4,
  0xe6, 0xea, 0xfb, 0xfd, 0x6d, 0xfb, 0xe1, 0x07, 0xff, 0xf9, 0xfd, 0xf9,
  0x39, 0xfa, 0x0e, 0xc1, 0x0f, 0x06, 0x06, 0x02, 0x67, 0x05, 0x0b, 0xe4,
  0x06, 0xff, 0xfe, 0x05, 0x7f, 0x05, 0x0b, 0x0a, 0x00, 0x09, 0x01, 0x04,
  0x67, 0x07, 0x03, 0xfd, 0x05, 0xfb, 0xfb, 0xfc, 0x68, 0x03, 0xfa, 0xed,
  0x06, 0x01, 0xfe, 0x05, 0x6d, 0xfa, 0x11, 0x07, 0xff, 0x07, 0xfc, 0x01,
  0x65, 0x02, 0xf9, 0xf4, 0x00, 0xfd, 0x04, 0xfe, 0x65, 0xfb, 0xf7, 0xec,
  0x05, 0x04, 0x04, 0xfb, 0x70, 0x00, 0x04, 0x07, 0x01, 0x00, 0xff, 0x02,
  0x70, 0x04, 0xf6, 0xf1, 0x02, 0x00, 0x05, 0x07, 0x5c, 0x00, 0xff, 0xec,
  0xb6, 0xef, 0xff, 0xff, 0x04, 0x00, 0x00, 0x00, 0x40, 0x00, 0x00, 0x00,
  0xad, 0xff, 0xff, 0xff, 0x82, 0xff, 0xff, 0xff, 0xc5, 0x00, 0x00, 0x00,
  0x1a, 0x00, 0x00, 0x00, 0x30, 0x05, 0x00, 0x00, 0x64, 0x0f, 0x00, 0x00,
  0x70, 0x14, 0x00, 0x00, 0x41, 0x06, 0x00, 0x00, 0xaa, 0x00, 0x00, 0x00,
  0xad, 0xfd, 0xff, 0xff, 0x95, 0x03, 0x00, 0x00, 0xf7, 0xff, 0xff, 0xff,
  0x38, 0xff, 0xff, 0xff, 0xdb, 0x00, 0x00, 0x00, 0x3d, 0xfd, 0xff, 0xff,
  0x7e, 0xfd, 0xff, 0xff, 0x02, 0xf0, 0xff, 0xff, 0x04, 0x00, 0x00, 0x00,
  0x80, 0x0d, 0x00, 0x00, 0xbc, 0xd9, 0x59, 0xaf, 0x28, 0xbd, 0xae, 0x58,
  0xad, 0x14, 0x9b, 0xd5, 0xb2, 0xb1, 0x59, 0x90, 0x0d, 0x9c, 0xeb, 0x6b,
  0x5c, 0x91, 0x2c, 0x4a, 0x35, 0xfd, 0xe9, 0x2e, 0x9e, 0xd4, 0xff, 0xf8,
  0xbc, 0xc8, 0x31, 0xaf, 0xaf, 0xbc, 0xe5, 0x40, 0x49, 0x21, 0xb0, 0xb6,
  0x98, 0x39, 0xd9, 0x34, 0xc0, 0xd9, 0x06, 0x22, 0xc7, 0xe5, 0xda, 0x40,
  0x12, 0x06, 0x98, 0x8a, 0x96, 0xd4, 0x53, 0xc8, 0xc3, 0x43, 0x58, 0xa0,
  0x1d, 0x1f, 0x08, 0x3d, 0x32, 0xa5, 0x51, 0xb4, 0xd7, 0xae, 0x01, 0xd4,
  0x54, 0x91, 0x15, 0xb9, 0x57, 0xf8, 0xbd, 0x3e, 0x97, 0x94, 0xa8, 0x45,
  0xd9, 0xf3, 0xff, 0xbb, 0xc4, 0xdd, 0x16, 0x07, 0x9b, 0x09, 0x04, 0x81,
  0xe8, 0x02, 0x8b, 0xd9, 0xaf, 0xdb, 0xf0, 0x3e, 0x2b, 0x27, 0xf1, 0xfa,
  0x30, 0xc9, 0xeb, 0xcb, 0x37, 0xea, 0xc8, 0xec, 0xa8, 0x38, 0xce, 0x56,
  0x26, 0x5d, 0x3b, 0xbd, 0x2e, 0xd9, 0x8e, 0xd7, 0x03, 0xdc, 0x0b, 0x50,
  0x9c, 0x4b, 0xde, 0xf2, 0x0e, 0xfc, 0xdf, 0x06, 0x15, 0x14, 0xf3, 0x04,
  0x4b, 0x03, 0x13, 0xd7, 0x00, 0xc7, 0x08, 0x12, 0x08, 0x13, 0xc9, 0x10,
  0x16, 0x03, 0xee, 0x0d, 0x7f, 0x09, 0x0f, 0xc8, 0xe8, 0xcf, 0x08, 0x10,
  0x0b, 0x01, 0x95, 0x07, 0xff, 0x08, 0x0a, 0x17, 0x65, 0x05, 0xfc, 0xd4,
  0xed, 0xba, 0x03, 0x0f, 0x0f, 0x08, 0xe1, 0xff, 0xf6, 0x16, 0x03, 0xfd,
  0x22, 0x0e, 0x12, 0xbd, 0xcf, 0xba, 0x05, 0xfd, 0x05, 0x0b, 0xbc, 0x0e,
  0xf6, 0x0b, 0x0c, 0x09, 0x5d, 0x0a, 0x0f, 0xb5, 0xcd, 0xa7, 0x00, 0x10,
  0x09, 0x07, 0xae, 0xf7, 0xfc, 0xfe, 0x29, 0x11, 0x5c, 0xf3, 0xf5, 0xbb,
  0xdc, 0xa3, 0xea, 0xff, 0x04, 0xf0, 0xdc, 0xf4, 0x06, 0x1a, 0x21, 0x05,
  0xe4, 0xf2, 0x05, 0xb7, 0xd1, 0xab, 0xf1, 0xf2, 0xff, 0xfe, 0xd1, 0xfd,
  0x02, 0x1a, 0x29, 0x10, 0x46, 0xf6, 0x07, 0xb3, 0xc9, 0x9c, 0xfd, 0xf0,
  0xf3, 0xec, 0xda, 0xea, 0xfe, 0x06, 0x2f, 0x00, 0x5f, 0xeb, 0xfc, 0xc2,
  0xe3, 0xa9, 0xe9, 0xf3, 0x12, 0xff, 0xf7, 0xf5, 0x0f, 0xfc, 0xf2, 0xf4,
  0x5d, 0x03, 0xfd, 0xc7, 0xe0, 0xca, 0x00, 0xfb, 0x0f, 0x02, 0xe7, 0xfa,
  0x05, 0x12, 0x05, 0x0a, 0x7f, 0x0c, 0x12, 0xcf, 0xf2, 0xc9, 0x0f, 0xfc,
  0x09, 0xfa, 0x9b, 0x10, 0xff, 0x03, 0x20, 0xfe, 0x66, 0x18, 0x12, 0xb9,
  0xd1, 0xc0, 0xf9, 0x16, 0x04, 0xfa, 0xee, 0x05, 0xfc, 0x1b, 0x0f, 0x0a,
  0x17, 0x0e, 0xf6, 0xd7, 0xe9, 0xb9, 0xf7, 0xf5, 0x0e, 0x14, 0xcc, 0x02,
  0xf5, 0x16, 0x09, 0x0e, 0x60, 0xfc, 0xf3, 0xd7, 0xce, 0xc1, 0x08, 0x0d,
  0xfd, 0xf5, 0xc0, 0x02, 0xff, 0x06, 0x27, 0xfa, 0x2a, 0xf5, 0x05, 0xb8,
  0xce, 0xb6, 0xfe, 0x0c, 0xef, 0xfc, 0x00, 0xfc, 0x0b, 0x1f, 0x1f, 0xf5,
  0xeb, 0xee, 0x06, 0xb5, 0xc1, 0xa6, 0xf9, 0xff, 0x14, 0x0e, 0xc8, 0xfe,
  0x04, 0x0d, 0x29, 0x03, 0x21, 0x01, 0xf0, 0xcf, 0xc1, 0xc0, 0xec, 0x01,
  0xf3, 0x05, 0xdc, 0xf6, 0x08, 0x15, 0x46, 0xfc, 0x33, 0xfb, 0x04, 0xaa,
  0xd5, 0xa6, 0x00, 0xf2, 0x15, 0x06, 0xff, 0x0e, 0xfe, 0xf4, 0x09, 0xfa,
  0x4f, 0x0b, 0x18, 0xe1, 0x03, 0xf7, 0x0f, 0x0c, 0x1d, 0x1b, 0xb9, 0x18,
  0x07, 0x07, 0x04, 0x12, 0x7f, 0x27, 0x12, 0xe7, 0x18, 0x00, 0x09, 0x0e,
  0x04, 0x09, 0x9d, 0x1e, 0x0f, 0x02, 0x10, 0x11, 0x68, 0x15, 0x04, 0xff,
  0x0b, 0xfe, 0x08, 0x11, 0xfb, 0xf4, 0xed, 0xf9, 0xfa, 0xff, 0x10, 0xf9,
  0x0b, 0xf1, 0xf1, 0xe2, 0xf5, 0xc0, 0x0c, 0x11, 0x0e, 0x0a, 0xb6, 0xf7,
  0x0b, 0x07, 0x0f, 0x0a, 0x50, 0x04, 0x05, 0xcd, 0xe3, 0xd8, 0x03, 0x13,
  0x13, 0x0a, 0xa6, 0x0b, 0xf3, 0xff, 0x33, 0x0f, 0x3d, 0xf8, 0x02, 0xe4,
  0xf8, 0xea, 0xff, 0xf8, 0x06, 0xeb, 0xe2, 0xfa, 0xe5, 0x0b, 0x2a, 0xf6,
  0xdc, 0xfa, 0xf6, 0xb9, 0xd6, 0xbe, 0x01, 0xe9, 0x00, 0xe8, 0xbc, 0xfd,
  0x06, 0x10, 0x26, 0xed, 0x2d, 0xf6, 0xef, 0xba, 0xd0, 0xb4, 0xfd, 0x07,
  0xf0, 0xea, 0xb9, 0xff, 0x07, 0x0c, 0x49, 0x09, 0x2f, 0xf8, 0xfe, 0xbf,
  0xd5, 0xb7, 0xdc, 0xf2, 0xfa, 0xfd, 0xf7, 0x07, 0x14, 0xf8, 0xda, 0x03,
  0x2c, 0x02, 0x04, 0x09, 0x12, 0x1e, 0x20, 0xfb, 0x08, 0x08, 0xdb, 0x10,
  0xfc, 0xec, 0xd5, 0x0f, 0x3b, 0x08, 0xfc, 0x09, 0x14, 0x1b, 0x05, 0x0a,
  0x12, 0x03, 0xee, 0x1a, 0xeb, 0xed, 0xee, 0x00, 0x7f, 0x07, 0xf4, 0x3b,
  0x3b, 0x37, 0xe4, 0xfd, 0xfd, 0x04, 0xe1, 0x11, 0x11, 0xe9, 0xe6, 0xfc,
  0xf6, 0x06, 0xfb, 0x1f, 0x19, 0x19, 0x0a, 0x07, 0x08, 0x0b, 0xe4, 0x06,
  0x01, 0xfb, 0xe0, 0x05, 0x32, 0xfc, 0xfe, 0x1a, 0x1d, 0x1c, 0x00, 0xfb,
  0x0b, 0xf4, 0xee, 0x0a, 0xf8, 0xfe, 0xed, 0xf9, 0x58, 0x05, 0xf8, 0x35,
  0x37, 0x2e, 0xed, 0xf8, 0x11, 0x17, 0xaf, 0x17, 0xfc, 0xef, 0xe0, 0x08,
  0xbb, 0x14, 0xfe, 0x2d, 0x2f, 0x32, 0xf9, 0x03, 0x04, 0xf3, 0xe5, 0x01,
  0x08, 0xfb, 0xe3, 0xf8, 0x22, 0xf3, 0xfe, 0x23, 0x2e, 0x26, 0x03, 0xfc,
  0xf0, 0xe6, 0xed, 0xf8, 0xf5, 0xf6, 0xe3, 0xeb, 0x3e, 0xe9, 0xf0, 0x28,
  0x31, 0x25, 0xe8, 0xef, 0x09, 0xf6, 0x00, 0x0e, 0x14, 0xf8, 0x06, 0x11,
  0x4e, 0x0d, 0x0c, 0xdd, 0xf3, 0xe1, 0x03, 0x0b, 0x09, 0x00, 0xc9, 0x1f,
  0x12, 0xf9, 0xee, 0x14, 0x6a, 0x0d, 0x14, 0xf2, 0x07, 0xee, 0x17, 0x1c,
  0x02, 0x11, 0x8b, 0x15, 0xfa, 0xff, 0x0c, 0x07, 0x7f, 0x08, 0x01, 0xd5,
  0xf5, 0xf6, 0x09, 0x15, 0xf1, 0x04, 0xfe, 0x00, 0xf7, 0xf9, 0x17, 0x02,
  0x11, 0x09, 0xff, 0xdf, 0xea, 0xc8, 0x08, 0x0d, 0x16, 0x04, 0xbf, 0x01,
  0x0a, 0x00, 0x1a, 0xfb, 0x56, 0xf8, 0x06, 0xe3, 0xef, 0xce, 0x00, 0xf3,
  0x04, 0xeb, 0x9e, 0x00, 0x05, 0x09, 0x18, 0x05, 0x3f, 0xf1, 0xfd, 0xd7,
  0xed, 0xcb, 0xf0, 0x05, 0xea, 0x00, 0xde, 0xf9, 0xfc, 0xff, 0x27, 0x06,
  0xd5, 0xf1, 0xf4, 0xd4, 0xec, 0xb8, 0xff, 0x00, 0xf4, 0xfc, 0xdc, 0xf9,
  0xfa, 0x0d, 0x2c, 0x06, 0x17, 0x05, 0xee, 0xb9, 0xdb, 0xb4, 0xfe, 0xed,
  0x03, 0xfa, 0xb4, 0x01, 0xf9, 0x16, 0x3d, 0x09, 0x46, 0xfd, 0xec, 0xba,
  0xea, 0xbb, 0xeb, 0x02, 0xfe, 0xf6, 0x03, 0xdd, 0xfd, 0x16, 0x25, 0x10,
  0x7f, 0xfe, 0xf8, 0xec, 0xfd, 0xd4, 0xf3, 0xe8, 0x0d, 0x03, 0xfa, 0xf7,
  0x01, 0x12, 0x1c, 0x0f, 0x6d, 0x0a, 0x10, 0xe6, 0xef, 0xc5, 0x12, 0x03,
  0x0b, 0xf2, 0xbc, 0xf6, 0x1e, 0x18, 0x27, 0x15, 0xff, 0xfc, 0x03, 0xad,
  0xbc, 0xac, 0x1c, 0x00, 0xf2, 0xff, 0x10, 0xd2, 0x0c, 0x1c, 0x24, 0x11,
  0x68, 0xd4, 0xf7, 0xcb, 0xec, 0xc9, 0xea, 0xe3, 0xfd, 0xf3, 0x02, 0xed,
  0xfd, 0x16, 0x25, 0x0d, 0x45, 0xf5, 0xfc, 0xe4, 0xf2, 0xd2, 0x06, 0xf8,
  0x19, 0x04, 0xc3, 0xf3, 0x19, 0x10, 0x23, 0xf5, 0xeb, 0x01, 0x14, 0xd1,
  0xe0, 0xc0, 0x19, 0xe8, 0xd7, 0xea, 0x1a, 0xb7, 0x11, 0x1c, 0x22, 0x06,
  0x6a, 0xd1, 0x0a, 0xac, 0xc4, 0x9a, 0xe8, 0xe2, 0xf3, 0xe6, 0x04, 0xd5,
  0xfb, 0x2b, 0x2c, 0xf3, 0x4b, 0xe7, 0xf8, 0xb2, 0xce, 0xa9, 0xfd, 0xeb,
  0x08, 0x00, 0xcb, 0xe9, 0x17, 0x19, 0x36, 0xf8, 0xe2, 0xe4, 0x10, 0xe3,
  0xde, 0xbb, 0x03, 0xf1, 0x07, 0xf1, 0xef, 0x15, 0x13, 0x01, 0xf0, 0x06,
  0x6e, 0x16, 0x08, 0xf7, 0x01, 0xe5, 0x12, 0x0d, 0x0f, 0xfe, 0xce, 0x25,
  0x0e, 0xfc, 0xe5, 0x08, 0x7f, 0x19, 0x01, 0x0a, 0x14, 0xff, 0x1a, 0x1a,
  0x10, 0x12, 0xa1, 0x1d, 0xf6, 0x09, 0x0a, 0x0c, 0x78, 0x01, 0x0d, 0x06,
  0x1c, 0xe6, 0x0b, 0x14, 0xf3, 0xed, 0xf4, 0x05, 0xf3, 0x15, 0x08, 0xec,
  0x28, 0x04, 0x04, 0xd7, 0xf3, 0xc3, 0xf5, 0x09, 0xf9, 0x0c, 0xc0, 0xfb,
  0xf9, 0x0a, 0xfc, 0xf6, 0x4a, 0x07, 0x02, 0xe5, 0xeb, 0xdd, 0xf3, 0x0e,
  0xfc, 0x02, 0xa4, 0xff, 0xf9, 0x01, 0x22, 0xf2, 0x4a, 0xf0, 0x0a, 0x00,
  0xf5, 0xcf, 0x06, 0xf8, 0xfe, 0xf9, 0xf1, 0xfe, 0xec, 0x0d, 0x26, 0xfb,
  0xf7, 0x02, 0xf7, 0xc7, 0xe2, 0xa0, 0xf9, 0xea, 0xef, 0xf6, 0xd7, 0xf6,
  0xf6, 0x0d, 0x1d, 0xf3, 0x1c, 0x01, 0xfe, 0xe0, 0xe2, 0xad, 0xf9, 0xfe,
  0xee, 0xf6, 0xb4, 0xfe, 0xea, 0x04, 0x43, 0xf9, 0x1e, 0xf4, 0xfc, 0xea,
  0xd5, 0xbf, 0xf1, 0xf3, 0x06, 0x00, 0xcb, 0x14, 0xf8, 0xfe, 0xfa, 0xff,
  0x34, 0x0a, 0x04, 0xd9, 0xfe, 0xe7, 0x16, 0x11, 0x13, 0x11, 0xad, 0x26,
  0x06, 0xf7, 0x08, 0x17, 0x7a, 0x13, 0x16, 0x03, 0x02, 0xe9, 0xfb, 0x0a,
  0x15, 0x0e, 0x81, 0x16, 0xf2, 0xf5, 0x14, 0x0d, 0x75, 0x09, 0x13, 0xe0,
  0xf8, 0xe4, 0x0d, 0x08, 0xf5, 0x09, 0xb7, 0xf4, 0xf5, 0x0b, 0x00, 0x09,
  0x01, 0xfb, 0x0b, 0xc4, 0xdd, 0xbd, 0x12, 0x0d, 0x0f, 0xf9, 0xaf, 0x0c,
  0xfa, 0x03, 0x1e, 0xf4, 0x57, 0x12, 0x0d, 0xe3, 0xde, 0xd1, 0x02, 0xfc,
  0x07, 0x07, 0xa1, 0x01, 0xfd, 0x01, 0x28, 0xfd, 0x57, 0x06, 0x06, 0xe0,
  0xe8, 0xd4, 0xfd, 0xf4, 0xfc, 0xfe, 0xbe, 0xef, 0xef, 0x18, 0x1a, 0xf6,
  0xdd, 0x05, 0xf7, 0xb6, 0xc6, 0xb6, 0xf0, 0xff, 0x0b, 0xec, 0xd1, 0x03,
  0x09, 0x0c, 0x2e, 0xfd, 0x35, 0xf3, 0xff, 0xba, 0xe1, 0xaf, 0xef, 0xf4,
  0xfb, 0xe9, 0xcf, 0xf2, 0xff, 0x12, 0x46, 0x00, 0x4f, 0x00, 0x01, 0xcb,
  0xec, 0xb1, 0xe7, 0xeb, 0x0c, 0xe7, 0xea, 0xeb, 0xcc, 0x10, 0x25, 0xb8,
  0x25, 0x3d, 0xda, 0x0d, 0xee, 0xba, 0xe1, 0xb0, 0xfb, 0xe0, 0xbf, 0xf8,
  0xd5, 0xc7, 0x9b, 0x14, 0xbd, 0x3c, 0xe3, 0xf7, 0xca, 0xd9, 0x1e, 0x1b,
  0xff, 0xf1, 0x05, 0x29, 0x08, 0xea, 0xb4, 0xe7, 0x0e, 0x2d, 0xc9, 0xf8,
  0xb9, 0xe6, 0x06, 0xef, 0x08, 0x23, 0x01, 0xc8, 0x37, 0x3f, 0x38, 0xd4,
  0x3c, 0x30, 0x3c, 0xc7, 0x0c, 0xa2, 0xc2, 0x16, 0xcc, 0xd4, 0xf8, 0x21,
  0xc8, 0x05, 0xf0, 0xfb, 0x16, 0xbb, 0xd9, 0xdc, 0xa5, 0xea, 0x36, 0xe8,
  0xbf, 0x12, 0xfc, 0xf1, 0xba, 0xeb, 0xd0, 0xf5, 0xa5, 0x0f, 0xbc, 0xcb,
  0xdc, 0x13, 0x30, 0xd7, 0xcc, 0xe0, 0xf7, 0x37, 0x1a, 0xe2, 0x38, 0xbd,
  0x1f, 0xd2, 0x21, 0x00, 0xbb, 0x81, 0x35, 0x11, 0xc8, 0x0f, 0x11, 0x22,
  0xd1, 0xfe, 0x28, 0xf8, 0xe3, 0x39, 0xc0, 0xce, 0x03, 0xaf, 0x0f, 0x0a,
  0x19, 0xcd, 0xd3, 0x2d, 0x31, 0x1b, 0xe9, 0x26, 0xbd, 0x03, 0xcc, 0xe0,
  0x25, 0xc9, 0xf2, 0xc3, 0x14, 0xfb, 0x29, 0x08, 0xdb, 0x0e, 0x1a, 0x08,
  0x8a, 0xf0, 0xf1, 0x49, 0x39, 0x45, 0xda, 0xf0, 0xf4, 0xeb, 0x32, 0xd1,
  0xfc, 0x10, 0x25, 0xe9, 0x93, 0xde, 0xe6, 0x39, 0x2b, 0x35, 0xce, 0xe7,
  0xe8, 0xd7, 0x7f, 0xce, 0xec, 0x18, 0x1b, 0xf5, 0xcd, 0xdc, 0x04, 0x23,
  0x26, 0x3d, 0xed, 0xf4, 0x31, 0x12, 0x1b, 0x16, 0xf0, 0xf6, 0x20, 0x02,
  0xc1, 0xff, 0x04, 0x47, 0x41, 0x4b, 0xeb, 0x04, 0x19, 0xfe, 0x31, 0xfb,
  0xf6, 0xfe, 0x22, 0x06, 0xc2, 0x08, 0x0a, 0x2b, 0x2e, 0x4e, 0xe8, 0xf9,
  0x06, 0xf1, 0x69, 0xfb, 0x0f, 0xfb, 0x1c, 0x04, 0xdd, 0xfd, 0xf8, 0x2e,
  0x25, 0x41, 0x00, 0x09, 0x32, 0x09, 0x11, 0x1d, 0xf7, 0x06, 0x16, 0x00,
  0xe0, 0x25, 0xfb, 0x35, 0x24, 0x5c, 0x0c, 0x11, 0x2e, 0x08, 0x23, 0x1d,
  0x06, 0x03, 0x07, 0x0e, 0xe2, 0x1e, 0x18, 0x2f, 0x13, 0x47, 0x0d, 0x05,
  0x16, 0x04, 0x49, 0x02, 0x0b, 0x0a, 0xf6, 0xf6, 0x02, 0xf5, 0x0d, 0x2c,
  0x17, 0x46, 0x18, 0x15, 0x02, 0x04, 0xe3, 0x00, 0x17, 0xf8, 0x04, 0x0b,
  0x5c, 0x12, 0x1b, 0xd5, 0xf7, 0xe9, 0x07, 0x07, 0x1d, 0x06, 0xb5, 0x22,
  0x19, 0xf7, 0xfe, 0x0d, 0x7c, 0x14, 0x0f, 0xde, 0x02, 0xdd, 0x07, 0x0f,
  0x19, 0x0d, 0x81, 0x16, 0x05, 0x13, 0x1b, 0x1c, 0x76, 0x22, 0xf8, 0xd9,
  0xf1, 0xe4, 0xf4, 0x04, 0x04, 0xf3, 0xe2, 0xf0, 0x11, 0xfc, 0x0b, 0xfe,
  0x1f, 0xfe, 0x00, 0xcb, 0xdc, 0xce, 0x04, 0x02, 0xf8, 0x10, 0xcd, 0x18,
  0x0e, 0xfe, 0x18, 0x13, 0x65, 0x04, 0x15, 0xb5, 0xdf, 0xd4, 0xfc, 0xfa,
  0x17, 0x09, 0x9e, 0xfb, 0x10, 0x0f, 0x30, 0x01, 0x57, 0x10, 0x04, 0xc3,
  0xec, 0xca, 0x08, 0x14, 0xf6, 0xf0, 0xda, 0x09, 0x09, 0x0f, 0x11, 0x04,
  0xd5, 0xf1, 0x0c, 0xc8, 0xdc, 0xb5, 0xe9, 0xf2, 0xf8, 0xfd, 0xe0, 0x0c,
  0xf2, 0x1f, 0x3a, 0x11, 0x43, 0xed, 0xef, 0xbc, 0xd0, 0xb2, 0xf4, 0xf3,
  0x06, 0xfc, 0xd8, 0xe8, 0xf3, 0xfd, 0x52, 0xf1, 0x3f, 0xe2, 0x02, 0xbb,
  0xdb, 0xc0, 0xee, 0xee, 0xa5, 0xb6, 0xa7, 0x3c, 0x1b, 0x1d, 0xc5, 0x4d,
  0xe0, 0xfe, 0xb8, 0x9e, 0x50, 0xdf, 0x4c, 0x0b, 0x35, 0x02, 0xaf, 0x9b,
  0xbd, 0x43, 0xec, 0x12, 0x35, 0xa6, 0x14, 0x3d, 0x18, 0xa3, 0xf9, 0x1d,
  0x22, 0x00, 0xdf, 0x18, 0x0c, 0xb2, 0xa3, 0xce, 0xd2, 0xce, 0xbe, 0xba,
  0xb0, 0xfc, 0xb3, 0x95, 0x09, 0xdc, 0xda, 0x0e, 0xfc, 0x0b, 0x23, 0xb1,
  0xd2, 0x16, 0x81, 0x12, 0x3e, 0xf0, 0xf6, 0x0b, 0xd2, 0x9c, 0xc8, 0xa4,
  0x95, 0x3b, 0xb7, 0x17, 0x1d, 0xab, 0xc7, 0xbf, 0xe3, 0x13, 0x21, 0x0a,
  0xdc, 0xdc, 0xa4, 0x2b, 0x28, 0x0e, 0xf7, 0xde, 0x29, 0xd9, 0xe7, 0x13,
  0x46, 0x44, 0x1f, 0x9b, 0xdb, 0x18, 0x16, 0xd8, 0xe5, 0xf3, 0x1e, 0xcb,
  0xa9, 0xbd, 0x87, 0xc9, 0x38, 0xb9, 0x3a, 0x05, 0xf4, 0xbb, 0x20, 0xfa,
  0x24, 0xfb, 0xcf, 0x3f, 0xfc, 0xd8, 0x20, 0xc1, 0x38, 0x12, 0x9f, 0xcd,
  0x15, 0xa0, 0xdc, 0x1d, 0xdd, 0xfa, 0x40, 0x9a, 0x08, 0x0a, 0x9f, 0xb9,
  0x9f, 0xd5, 0xfe, 0x44, 0x09, 0x04, 0x17, 0x0f, 0xfc, 0x03, 0xff, 0x03,
  0x90, 0x0c, 0xfc, 0xf5, 0x02, 0xf1, 0x02, 0x09, 0xed, 0xf5, 0xfb, 0xef,
  0x03, 0xfb, 0x03, 0xfb, 0x81, 0xf3, 0x00, 0xf9, 0x09, 0xf9, 0x08, 0xfc,
  0xef, 0xfa, 0x08, 0xf6, 0x13, 0xf9, 0x0a, 0x04, 0xdb, 0xf4, 0x04, 0x0b,
  0x13, 0x15, 0x0f, 0xfc, 0x0b, 0x0c, 0x19, 0x12, 0xfc, 0xfa, 0x08, 0x06,
  0xbd, 0x04, 0xf9, 0xf4, 0x02, 0xf1, 0x01, 0xfc, 0xef, 0xfa, 0x01, 0xf7,
  0xfe, 0xf7, 0x01, 0xff, 0xa4, 0xfa, 0xfd, 0xf5, 0x01, 0xfd, 0x09, 0xfb,
  0xf8, 0x01, 0x05, 0xf3, 0x09, 0x02, 0x09, 0x02, 0xf4, 0xf3, 0x0b, 0x13,
  0x0c, 0x16, 0x0f, 0x05, 0x0c, 0x11, 0x04, 0x12, 0x02, 0xfc, 0x04, 0x0b,
  0xe5, 0x12, 0xf6, 0xf6, 0x0c, 0xf8, 0x01, 0xfe, 0xf7, 0x07, 0xf4, 0x00,
  0x05, 0x00, 0x0a, 0x0d, 0xc5, 0xfd, 0x00, 0xf1, 0x01, 0xf1, 0x02, 0xfc,
  0xee, 0xf8, 0x02, 0xed, 0x07, 0xfe, 0x07, 0x07, 0x05, 0xed, 0x0a, 0x0b,
  0x16, 0x0e, 0x0d, 0x02, 0xab, 0x1f, 0xd6, 0xee, 0xf0, 0xcb, 0xd7, 0x2a,
  0x17, 0x9f, 0x1d, 0xc1, 0x30, 0xc6, 0x0d, 0xb0, 0xa2, 0xc8, 0xb3, 0x36,
  0x17, 0xa5, 0x04, 0x0d, 0x08, 0x00, 0x16, 0xad, 0xfc, 0xea, 0xcb, 0xc9,
  0xbf, 0x25, 0xc1, 0x16, 0xa4, 0xeb, 0xdc, 0xf9, 0xd4, 0x01, 0xd3, 0x09,
  0x10, 0xa2, 0xdb, 0xed, 0x31, 0xc9, 0x22, 0xed, 0xd5, 0xd6, 0x06, 0x99,
  0x23, 0x05, 0xef, 0x2c, 0x2a, 0xd8, 0xe5, 0xbc, 0xe0, 0x21, 0xaf, 0x03,
  0x03, 0x11, 0x27, 0x12, 0x1c, 0xd6, 0xd6, 0x08, 0x03, 0xf1, 0xb4, 0x35,
  0x07, 0x9c, 0xcd, 0xb6, 0x34, 0xe0, 0xfb, 0x23, 0x60, 0x12, 0xe8, 0xe6,
  0x0b, 0x01, 0xcf, 0x0d, 0x34, 0xa6, 0x22, 0x30, 0x3b, 0xf8, 0x81, 0x9c,
  0x08, 0x28, 0xb2, 0xc0, 0x28, 0x18, 0xf3, 0x4b, 0xea, 0xe3, 0x05, 0xf0,
  0xc0, 0xac, 0x9f, 0xf8, 0xd9, 0xb8, 0xf6, 0x0d, 0xf0, 0x1f, 0x01, 0xd9,
  0x37, 0xa4, 0xd2, 0xd9, 0x9d, 0x95, 0x01, 0xde, 0xf9, 0xf4, 0xec, 0x50,
  0xf2, 0x4c, 0x28, 0xc2, 0x09, 0x09, 0xdf, 0x01, 0x0c, 0xf1, 0xea, 0x05,
  0x5f, 0x03, 0x17, 0xf9, 0xf8, 0xe0, 0x20, 0x17, 0x22, 0x1c, 0xc7, 0x14,
  0x08, 0x08, 0xf0, 0x01, 0x73, 0x1b, 0x05, 0xf0, 0x12, 0xf9, 0x15, 0x02,
  0x1e, 0x05, 0x95, 0x21, 0x00, 0xff, 0x22, 0xfe, 0x7f, 0x0c, 0x0e, 0xea,
  0x09, 0xe1, 0x04, 0x16, 0x0b, 0x01, 0xd0, 0x07, 0x09, 0x02, 0x05, 0xff,
  0x18, 0xff, 0x0b, 0xc9, 0xe1, 0xd1, 0x00, 0x0c, 0x05, 0x05, 0xcb, 0xfd,
  0xf4, 0x10, 0x05, 0x04, 0x35, 0x0c, 0x10, 0xd1, 0xe1, 0xcf, 0x10, 0x0d,
  0x0a, 0xf0, 0x90, 0xf6, 0xf0, 0xfd, 0x2b, 0x10, 0x2f, 0xf0, 0xfd, 0xe1,
  0xed, 0xd2, 0x00, 0x10, 0x04, 0x05, 0xe1, 0xde, 0xfd, 0x14, 0x21, 0xec,
  0xd4, 0xed, 0xf3, 0xb5, 0xe1, 0xa9, 0xf8, 0xe9, 0xfb, 0xf5, 0xba, 0xee,
  0x02, 0x03, 0x1c, 0x03, 0x2b, 0x06, 0x06, 0xc3, 0xe5, 0xbb, 0x03, 0xec,
  0xfc, 0xf8, 0xb3, 0xf0, 0xf4, 0x18, 0x39, 0xed, 0x27, 0xde, 0xf3, 0xb6,
  0xd2, 0xc6, 0xef, 0x00, 0x12, 0x05, 0xef, 0x14, 0xfd, 0x0c, 0xe3, 0xff,
  0x41, 0x0f, 0xfe, 0xdd, 0xf8, 0xf1, 0x0e, 0x11, 0x0c, 0x10, 0xae, 0x24,
  0x0a, 0xf0, 0xe8, 0x0e, 0x63, 0x18, 0x07, 0x04, 0x1d, 0xed, 0x0c, 0x1d,
  0x1a, 0x0b, 0x9c, 0x20, 0x09, 0xf1, 0x19, 0x09, 0x7f, 0x1a, 0x0e, 0xf5,
  0x1c, 0xfb, 0xfa, 0x14, 0x08, 0x03, 0xeb, 0x07, 0xf8, 0xf7, 0x06, 0x0b,
  0x10, 0xfe, 0xfe, 0xe3, 0xe4, 0xe7, 0x15, 0x10, 0xfc, 0x0b, 0xa8, 0x03,
  0xfb, 0xfd, 0x16, 0xf5, 0x30, 0xf8, 0xfc, 0xe6, 0x08, 0xdd, 0x03, 0x05,
  0xfb, 0xef, 0x93, 0x0e, 0x02, 0x03, 0x35, 0x0c, 0x54, 0x01, 0x09, 0xeb,
  0xea, 0xce, 0xf0, 0xfa, 0x00, 0xf3, 0xd8, 0xeb, 0xf7, 0x14, 0x25, 0x01,
  0xd7, 0xfd, 0xef, 0xc6, 0xe8, 0xc1, 0x08, 0xf0, 0xed, 0xf5, 0xb1, 0x07,
  0xed, 0x07, 0x13, 0x01, 0x21, 0xed, 0xf2, 0xbf, 0xd5, 0xaf, 0xfc, 0xf0,
  0x00, 0xf0, 0xa8, 0xf8, 0x08, 0x18, 0x45, 0x04, 0x3e, 0xed, 0xf1, 0xc9,
  0xd6, 0xba, 0xf1, 0xf9, 0xf5, 0x4b, 0xa8, 0x44, 0xb8, 0xc0, 0xa2, 0xb8,
  0xf5, 0x49, 0xd1, 0x46, 0x02, 0x2e, 0x9a, 0x15, 0x3d, 0xf7, 0x22, 0xaa,
  0x4c, 0x0d, 0xa9, 0x29, 0xe8, 0x58, 0xa8, 0xac, 0xe8, 0xd8, 0x27, 0xe7,
  0x18, 0x3a, 0xe3, 0x31, 0xfa, 0x2c, 0xb8, 0xff, 0xdd, 0xd2, 0x14, 0x18,
  0x5e, 0xee, 0x53, 0xf3, 0xeb, 0xfc, 0x17, 0xc5, 0xf2, 0x52, 0x24, 0xbf,
  0x5f, 0xf8, 0x46, 0x53, 0x3d, 0xd2, 0xec, 0x83, 0x0a, 0xe2, 0x47, 0xa3,
  0xb9, 0x9d, 0x04, 0x9e, 0x29, 0x3d, 0xfb, 0x1b, 0xef, 0xdb, 0xa9, 0x02,
  0xd0, 0xdf, 0x0b, 0x3f, 0x01, 0x9f, 0x3c, 0xd9, 0x33, 0xf9, 0xac, 0x55,
  0x2a, 0xf1, 0xcf, 0xa8, 0xf1, 0x11, 0x35, 0xda, 0xbc, 0x13, 0xbc, 0xe3,
  0x16, 0xe7, 0x38, 0xcc, 0x53, 0x1d, 0xf4, 0xb6, 0x3d, 0x31, 0x4b, 0xfa,
  0x0a, 0x9d, 0xf2, 0xc0, 0x06, 0x03, 0xe7, 0x41, 0x2f, 0xd3, 0x95, 0x3e,
  0x4b, 0xf1, 0xae, 0x96, 0x19, 0xe1, 0x81, 0x3a, 0x27, 0x33, 0xb2, 0x3e,
  0xe7, 0x9c, 0x34, 0xab, 0xea, 0x11, 0xd5, 0xe4, 0xe2, 0x19, 0xf3, 0xf7,
  0x24, 0xb0, 0xae, 0x99, 0x8e, 0xf7, 0xd6, 0xae, 0xb2, 0x93, 0x37, 0x8b,
  0x04, 0xcf, 0x32, 0x2d, 0xbd, 0xcc, 0x01, 0x16, 0xf9, 0xe3, 0xa1, 0x12,
  0x04, 0x21, 0x1a, 0x11, 0xff, 0xf0, 0x40, 0xa3, 0xa6, 0xa1, 0xa6, 0x37,
  0xb4, 0xa4, 0x3b, 0xad, 0xc9, 0x4a, 0xcc, 0x8d, 0xe7, 0xc5, 0x28, 0x82,
  0x1c, 0x1e, 0xbc, 0x38, 0xf3, 0xc3, 0xe0, 0xe9, 0x9a, 0x4e, 0x46, 0x46,
  0x1f, 0xd5, 0x16, 0x17, 0xaf, 0x48, 0xbb, 0xc8, 0xa9, 0xf7, 0x0c, 0x50,
  0x27, 0xbc, 0x31, 0xe0, 0xd7, 0x01, 0xfc, 0xb1, 0x01, 0xe9, 0xef, 0x13,
  0x41, 0x97, 0xa6, 0x29, 0xa0, 0x02, 0xb6, 0xf5, 0xef, 0xaa, 0x08, 0x8a,
  0x25, 0xe2, 0x36, 0x3d, 0x09, 0xb6, 0x1a, 0xc1, 0x3a, 0xc0, 0xd8, 0xc9,
  0x1b, 0x95, 0x1f, 0x12, 0xe1, 0xaa, 0x81, 0x8a, 0x19, 0x04, 0xa5, 0xf2,
  0x2d, 0xfb, 0x38, 0xcc, 0xee, 0xd2, 0xd9, 0x30, 0xb7, 0xab, 0x91, 0x06,
  0x13, 0xa6, 0xab, 0x4d, 0x0d, 0xfd, 0x43, 0x06, 0xf5, 0x27, 0x24, 0xfa,
  0xb3, 0xeb, 0xf2, 0x33, 0x3b, 0x4f, 0xda, 0xfe, 0x06, 0xe3, 0x51, 0xe1,
  0xea, 0x13, 0x2a, 0xee, 0x8e, 0xee, 0xf1, 0x21, 0x2f, 0x2c, 0xff, 0xe9,
  0xfa, 0xf0, 0x7b, 0xea, 0xf4, 0x28, 0x1f, 0x10, 0x81, 0xf7, 0x10, 0x19,
  0x26, 0x22, 0xf0, 0xff, 0x14, 0x11, 0x50, 0xf9, 0xfe, 0x02, 0x19, 0x15,
  0xe7, 0x11, 0x14, 0x36, 0x3e, 0x4a, 0x04, 0xf9, 0x09, 0x08, 0x50, 0xf7,
  0x01, 0x17, 0x1e, 0x04, 0xcc, 0x03, 0x13, 0x35, 0x21, 0x3f, 0xf3, 0xfb,
  0x17, 0x0b, 0x7c, 0x0a, 0x0a, 0x01, 0x14, 0xfa, 0xb7, 0x00, 0x13, 0x2f,
  0x19, 0x34, 0x11, 0x06, 0x19, 0x0b, 0x40, 0x09, 0x0e, 0x0b, 0xf5, 0x09,
  0x10, 0x1d, 0x15, 0x4b, 0x44, 0x6b, 0x1c, 0x07, 0x0c, 0x14, 0x40, 0x1b,
  0x06, 0x01, 0x0e, 0x0d, 0xdf, 0x00, 0x10, 0x39, 0x26, 0x4e, 0x0d, 0x21,
  0x18, 0x01, 0x60, 0x16, 0x0c, 0xfb, 0x00, 0xfe, 0xd1, 0x09, 0x16, 0x2e,
  0x36, 0x4e, 0x04, 0x22, 0xf2, 0xf9, 0xe9, 0xf8, 0x01, 0xfc, 0x15, 0x05,
  0x5f, 0x08, 0x03, 0xbe, 0xcd, 0xbd, 0x16, 0xf7, 0x10, 0x1c, 0xef, 0x0d,
  0x0a, 0x0b, 0x11, 0x00, 0x4c, 0x15, 0x0b, 0xc5, 0xea, 0xdb, 0x1c, 0xff,
  0xf2, 0xed, 0xc6, 0xea, 0xef, 0x06, 0x18, 0x01, 0x05, 0xea, 0xf3, 0xb4,
  0xd6, 0xc6, 0xff, 0xf9, 0x05, 0x0b, 0xed, 0xfb, 0xea, 0x0a, 0x1c, 0x0b,
  0x5a, 0xfe, 0x08, 0xd0, 0xe2, 0xc7, 0x0a, 0xf9, 0x11, 0x0b, 0xf3, 0x06,
  0x07, 0x08, 0x14, 0x0a, 0x65, 0x11, 0x05, 0xcf, 0xee, 0xd4, 0x1c, 0xfb,
  0xfb, 0xf1, 0xcb, 0xe4, 0xfe, 0x0a, 0x26, 0x05, 0x0c, 0xea, 0xf2, 0xbd,
  0xee, 0xe1, 0x01, 0xee, 0xf8, 0xff, 0xfb, 0xf8, 0xef, 0x06, 0x29, 0x0f,
  0x48, 0x08, 0xef, 0xbb, 0xd0, 0xc3, 0xec, 0xf2, 0x0e, 0x07, 0xf8, 0x01,
  0xfc, 0x0b, 0x22, 0x0a, 0x7f, 0x11, 0xf2, 0xc3, 0xeb, 0xd2, 0x14, 0xf0,
  0xef, 0xf0, 0xeb, 0xee, 0xf6, 0x02, 0x1d, 0xf8, 0x39, 0xe3, 0xf9, 0xdd,
  0xfe, 0xe9, 0x08, 0xeb, 0x0e, 0xf9, 0x31, 0x01, 0x00, 0x1f, 0x20, 0x0b,
  0xb8, 0xf0, 0xfa, 0x39, 0x0e, 0x18, 0xf5, 0x0a, 0x04, 0xe5, 0x48, 0xe0,
  0xf5, 0x16, 0x28, 0x04, 0x91, 0xe1, 0x02, 0x2b, 0x11, 0x1e, 0xed, 0xf2,
  0x03, 0xef, 0x67, 0xdf, 0x03, 0x17, 0x2e, 0xfd, 0x9a, 0x03, 0x00, 0x31,
  0x28, 0x18, 0xfe, 0x04, 0x15, 0xf3, 0x32, 0xfe, 0xf7, 0xf9, 0x1f, 0x06,
  0xfa, 0x08, 0x0e, 0x47, 0x1c, 0x24, 0xfc, 0x09, 0x03, 0x03, 0x5c, 0x07,
  0xfc, 0x07, 0x14, 0x0d, 0xcf, 0x0b, 0xfd, 0x3b, 0x30, 0x2d, 0xec, 0x01,
  0x10, 0x0c, 0x7f, 0xf4, 0x0c, 0x12, 0x19, 0x03, 0xd1, 0x0b, 0x11, 0x3d,
  0x17, 0x13, 0x11, 0x19, 0x0f, 0xfb, 0x4b, 0x25, 0x02, 0x0c, 0x0a, 0x18,
  0x35, 0x07, 0x14, 0x45, 0x25, 0x36, 0x10, 0x13, 0x02, 0x07, 0x52, 0x00,
  0xf6, 0x0d, 0xfc, 0x01, 0xfa, 0x0d, 0x10, 0x53, 0x2c, 0x34, 0x0b, 0xfc,
  0x17, 0x10, 0x69, 0x21, 0xfe, 0x08, 0xec, 0xfb, 0xf5, 0x11, 0xff, 0x45,
  0x33, 0x2d, 0x00, 0x1d, 0xdf, 0xde, 0x17, 0xcd, 0xef, 0x13, 0x1c, 0xe6,
  0x7f, 0xda, 0xf4, 0xeb, 0xef, 0xd3, 0xf1, 0xe1, 0x12, 0x1b, 0xfe, 0x19,
  0x12, 0xfd, 0xfa, 0xf4, 0x49, 0x14, 0x00, 0xe1, 0xee, 0xeb, 0x1a, 0x05,
  0xf8, 0x11, 0xe0, 0xf9, 0x16, 0xff, 0xde, 0xf1, 0x33, 0xec, 0x13, 0xed,
  0xf8, 0xd7, 0x26, 0x17, 0xec, 0xec, 0x16, 0xdb, 0xdc, 0x0c, 0x2e, 0xde,
  0x56, 0xd8, 0xf5, 0xe4, 0xfb, 0xcc, 0xd4, 0xef, 0x1c, 0x11, 0x15, 0x11,
  0xfe, 0xff, 0x0c, 0xe6, 0x11, 0x05, 0xfb, 0x16, 0x1d, 0x03, 0x0f, 0xfb,
  0x02, 0x0b, 0xec, 0xee, 0x12, 0x0b, 0xea, 0xe6, 0x2d, 0xf8, 0x06, 0x22,
  0x25, 0x15, 0x22, 0x01, 0xd9, 0xe1, 0x20, 0xc4, 0xe3, 0x15, 0x32, 0xe5,
  0x30, 0xcd, 0xef, 0xea, 0xf7, 0xc7, 0xde, 0xee, 0x10, 0xfb, 0x20, 0x03,
  0x05, 0x0b, 0x20, 0xde, 0x0c, 0xff, 0xf7, 0x37, 0x38, 0x19, 0x02, 0xfc,
  0x10, 0x01, 0xf4, 0xf2, 0x00, 0xfc, 0xf9, 0xf4, 0x1e, 0x11, 0x0c, 0x49,
  0x52, 0x30, 0x1f, 0x0b, 0x01, 0xf2, 0x3e, 0x01, 0x2b, 0x0a, 0xf5, 0x18,
  0xba, 0x02, 0x03, 0x3b, 0x3f, 0x3d, 0xe9, 0xe8, 0x26, 0x0e, 0x32, 0x1a,
  0x23, 0x0a, 0xea, 0x1a, 0xbf, 0x15, 0xfe, 0x54, 0x4b, 0x3a, 0xa3, 0xee,
  0x1a, 0x00, 0x0c, 0x02, 0xfe, 0x1c, 0x02, 0xfe, 0x8b, 0x05, 0xfc, 0x55,
  0x37, 0x2f, 0x81, 0xe8, 0xb6, 0xd4, 0x16, 0xda, 0x21, 0x07, 0xea, 0x15,
  0xa1, 0xd1, 0x00, 0x0b, 0xef, 0x08, 0xd1, 0xcc, 0xe7, 0x23, 0x36, 0x14,
  0x32, 0x00, 0xff, 0x23, 0xaf, 0x15, 0x1b, 0x29, 0x08, 0x18, 0xc9, 0xf5,
  0xf6, 0xff, 0x34, 0xfc, 0x32, 0x06, 0xeb, 0x27, 0xeb, 0x08, 0x16, 0x49,
  0x46, 0x19, 0xc1, 0x08, 0xcf, 0xca, 0x04, 0xc9, 0x0e, 0xfb, 0xf0, 0xfc,
  0xa4, 0xd0, 0xef, 0xf6, 0x01, 0x0f, 0xc9, 0xbe, 0xf4, 0xe6, 0x2b, 0xdc,
  0x2b, 0x1c, 0x07, 0x18, 0xad, 0xee, 0x07, 0x12, 0x11, 0x09, 0xd2, 0xf6,
  0xf2, 0xe0, 0x53, 0xe3, 0x46, 0x1e, 0xea, 0x12, 0x0a, 0xee, 0x1c, 0x35,
  0x2e, 0x23, 0xe5, 0xe9, 0x8e, 0xfd, 0xff, 0xff, 0x04, 0x00, 0x00, 0x00,
  0x60, 0x00, 0x00, 0x00, 0x2c, 0xfb, 0xff, 0xff, 0xd0, 0x03, 0x00, 0x00,
  0x8b, 0x02, 0x00, 0x00, 0x41, 0x02, 0x00, 0x00, 0x99, 0xfd, 0xff, 0xff,
  0x36, 0x02, 0x00, 0x00, 0x5d, 0x04, 0x00, 0x00, 0xd0, 0x00, 0x00, 0x00,
  0xf8, 0x01, 0x00, 0x00, 0x39, 0xff, 0xff, 0xff, 0x4a, 0x00, 0x00, 0x00,
  0xd4, 0x02, 0x00, 0x00, 0x36, 0xfb, 0xff, 0xff, 0x8a, 0xff, 0xff, 0xff,
  0xac, 0xfb, 0xff, 0xff, 0xec, 0x01, 0x00, 0x00, 0xcc, 0x01, 0x00, 0x00,
  0xfc, 0xfe, 0xff, 0xff, 0xcd, 0xf7, 0xff, 0xff, 0xd3, 0x00, 0x00, 0x00,
  0xc6, 0x01, 0x00, 0x00, 0x55, 0x00, 0x00, 0x00, 0xf2, 0x00, 0x00, 0x00,
  0x96, 0x01, 0x00, 0x00, 0xfa, 0xfd, 0xff, 0xff, 0x04, 0x00, 0x00, 0x00,
  0x80, 0x01, 0x00, 0x00, 0x17, 0xe0, 0x01, 0xe5, 0x89, 0xf4, 0xf3, 0x03,
  0xf9, 0x01, 0x2c, 0xf0, 0x15, 0x6f, 0xef, 0x06, 0xe9, 0x04, 0xf8, 0x2e,
  0xdb, 0x26, 0x81, 0x6d, 0x12, 0x27, 0x0c, 0x1d, 0x7f, 0xed, 0x34, 0x1e,
  0x13, 0xe4, 0xc4, 0x05, 0x02, 0xb2, 0x1c, 0x19, 0x15, 0xf7, 0x05, 0xf7,
  0x46, 0xe7, 0x77, 0xb0, 0x4d, 0x29, 0x38, 0x90, 0xa7, 0x81, 0x59, 0xc4,
  0x65, 0x2f, 0xa5, 0x8b, 0x3c, 0x62, 0xa3, 0x01, 0xaa, 0x29, 0xb8, 0xe3,
  0xec, 0xf9, 0x49, 0x72, 0x07, 0xfb, 0xd5, 0x09, 0xa1, 0xf9, 0xd3, 0x01,
  0x09, 0x0f, 0x34, 0x0a, 0x25, 0x64, 0xfc, 0xe9, 0xd1, 0x15, 0x12, 0x2b,
  0xd8, 0x29, 0xa4, 0x7f, 0xca, 0xcf, 0xa5, 0xc9, 0x81, 0xa2, 0x7a, 0x63,
  0xd5, 0x28, 0xee, 0x83, 0x67, 0xd5, 0x05, 0x4f, 0xf0, 0x18, 0xb4, 0xc1,
  0x9f, 0x2c, 0x28, 0x06, 0x01, 0xe9, 0x0b, 0x10, 0x9e, 0xed, 0x05, 0x08,
  0xf5, 0x05, 0x38, 0xe6, 0xfe, 0x2c, 0xec, 0xff, 0x00, 0xec, 0xf5, 0x05,
  0xcd, 0x20, 0x81, 0x31, 0x2d, 0x01, 0xe9, 0xa7, 0xc0, 0x81, 0x18, 0xfe,
  0x61, 0x57, 0xa8, 0x40, 0x07, 0x8b, 0xc3, 0xb4, 0xdb, 0x48, 0x2b, 0x47,
  0xc9, 0xca, 0x87, 0x4e, 0x67, 0x34, 0xdf, 0xb2, 0x7b, 0xb9, 0x81, 0xeb,
  0x74, 0xd0, 0xcc, 0x41, 0xb5, 0xed, 0x87, 0xa8, 0x17, 0xda, 0xae, 0x03,
  0xdf, 0xda, 0x92, 0xa7, 0xe2, 0xa9, 0x7f, 0x76, 0x2b, 0x94, 0x96, 0x27,
  0xa8, 0xb6, 0xc2, 0x4f, 0xe3, 0x66, 0x05, 0xd1, 0xef, 0x58, 0x84, 0xc9,
  0x60, 0x1f, 0x08, 0x91, 0xf6, 0x18, 0xf4, 0x0b, 0x7f, 0x0e, 0x1a, 0x17,
  0x24, 0xeb, 0xe3, 0x0e, 0x04, 0xc7, 0x15, 0x21, 0x0d, 0x0e, 0xed, 0xe8,
  0x29, 0xf1, 0x63, 0xc1, 0x66, 0x9b, 0x7b, 0x8e, 0x40, 0x17, 0xa3, 0x22,
  0x8c, 0x5b, 0xf3, 0x8f, 0x9c, 0x7f, 0x5e, 0xd3, 0xce, 0xa8, 0xef, 0x05,
  0x30, 0xfc, 0xf9, 0x60, 0xf9, 0x19, 0x1a, 0x1a, 0x5c, 0x15, 0x4b, 0x03,
  0x26, 0xec, 0xdf, 0x29, 0x18, 0xa5, 0x02, 0xfa, 0x0e, 0x1e, 0x15, 0xe3,
  0x5d, 0xe6, 0x7f, 0xa8, 0x1c, 0x42, 0x31, 0x21, 0x7f, 0x29, 0x65, 0x1c,
  0x31, 0xf2, 0xa9, 0x37, 0xde, 0xb3, 0xf5, 0x06, 0x29, 0xe3, 0xe7, 0xe0,
  0x50, 0xdf, 0x77, 0xa0, 0xf2, 0x2d, 0xf7, 0x06, 0x40, 0x13, 0x23, 0xf5,
  0xf6, 0x03, 0xd4, 0x14, 0x15, 0xc5, 0xf6, 0x13, 0x10, 0xeb, 0x17, 0xe6,
  0x45, 0x10, 0x7f, 0xa1, 0x51, 0x81, 0x54, 0x93, 0x14, 0xf6, 0xea, 0x01,
  0x82, 0x64, 0x02, 0x43, 0x4a, 0x92, 0xb2, 0xc9, 0xbd, 0xdd, 0x5f, 0x12,
  0xe7, 0x21, 0x10, 0xea, 0x24, 0x21, 0x3f, 0x0a, 0x51, 0xb4, 0x11, 0x8f,
  0xa7, 0xff, 0xf4, 0x53, 0x81, 0x4c, 0xcc, 0x90, 0x9d, 0x0b, 0xa4, 0xb0,
  0x0a, 0x1b, 0x11, 0x36, 0x86, 0xff, 0xff, 0xff, 0x04, 0x00, 0x00, 0x00,
  0x40, 0x00, 0x00, 0x00, 0xe8, 0x01, 0x00, 0x00, 0x51, 0x01, 0x00, 0x00,
  0xa8, 0xfa, 0xff, 0xff, 0xd2, 0x00, 0x00, 0x00, 0x14, 0xfd, 0xff, 0xff,
  0xd3, 0x00, 0x00, 0x00, 0xb7, 0xfa, 0xff, 0xff, 0x31, 0xfe, 0xff, 0xff,
  0x7e, 0xfd, 0xff, 0xff, 0x78, 0x01, 0x00, 0x00, 0x00, 0x00, 0x00, 0x00,
  0x02, 0x02, 0x00, 0x00, 0x24, 0x01, 0x00, 0x00, 0xa1, 0x00, 0x00, 0x00,
  0xd4, 0xfc, 0xff, 0xff, 0x52, 0xfe, 0xff, 0xff, 0xd2, 0xff, 0xff, 0xff,
  0x04, 0x00, 0x00, 0x00, 0x10, 0x00, 0x00, 0x00, 0xa9, 0x5f, 0xe2, 0xb2,
  0xfe, 0xa7, 0xff, 0xe8, 0xf8, 0x3d, 0x25, 0x7f, 0x4e, 0x65, 0x27, 0x0d,
  0xee, 0xff, 0xff, 0xff, 0x04, 0x00, 0x00, 0x00, 0x04, 0x00, 0x00, 0x00,
  0x41, 0x00, 0x00, 0x00, 0x00, 0x00, 0x06, 0x00, 0x08, 0x00, 0x04, 0x00,
  0x06, 0x00, 0x00, 0x00, 0x04, 0x00, 0x00, 0x00, 0x08, 0x00, 0x00, 0x00,
  0x01, 0x00, 0x00, 0x00, 0x02, 0x00, 0x00, 0x00, 0xe4, 0xec, 0xff, 0xff,
  0xe8, 0xec, 0xff, 0xff, 0x0f, 0x00, 0x00, 0x00, 0x4d, 0x4c, 0x49, 0x52,
  0x20, 0x43, 0x6f, 0x6e, 0x76, 0x65, 0x72, 0x74, 0x65, 0x64, 0x2e, 0x00,
  0x01, 0x00, 0x00, 0x00, 0x14, 0x00, 0x00, 0x00, 0x00, 0x00, 0x0e, 0x00,
  0x18, 0x00, 0x14, 0x00, 0x10, 0x00, 0x0c, 0x00, 0x08, 0x00, 0x04, 0x00,
  0x0e, 0x00, 0x00, 0x00, 0x14, 0x00, 0x00, 0x00, 0x1c, 0x00, 0x00, 0x00,
  0x9c, 0x02, 0x00, 0x00, 0xa0, 0x02, 0x00, 0x00, 0xa4, 0x02, 0x00, 0x00,
  0x04, 0x00, 0x00, 0x00, 0x6d, 0x61, 0x69, 0x6e, 0x00, 0x00, 0x00, 0x00,
  0x09, 0x00, 0x00, 0x00, 0x34, 0x02, 0x00, 0x00, 0xd0, 0x01, 0x00, 0x00,
  0x7c, 0x01, 0x00, 0x00, 0x38, 0x01, 0x00, 0x00, 0xe4, 0x00, 0x00, 0x00,
  0xb0, 0x00, 0x00, 0x00, 0x6c, 0x00, 0x00, 0x00, 0x34, 0x00, 0x00, 0x00,
  0x10, 0x00, 0x00, 0x00, 0x00, 0x00, 0x0a, 0x00, 0x10, 0x00, 0x0c, 0x00,
  0x08, 0x00, 0x04, 0x00, 0x0a, 0x00, 0x00, 0x00, 0x0c, 0x00, 0x00, 0x00,
  0x10, 0x00, 0x00, 0x00, 0x04, 0x00, 0x00, 0x00, 0x01, 0x00, 0x00, 0x00,
  0x14, 0x00, 0x00, 0x00, 0x01, 0x00, 0x00, 0x00, 0x13, 0x00, 0x00, 0x00,
  0x1a, 0xff, 0xff, 0xff, 0x14, 0x00, 0x00, 0x00, 0x00, 0x00, 0x00, 0x08,
  0x10, 0x00, 0x00, 0x00, 0x14, 0x00, 0x00, 0x00, 0x03, 0x00, 0x00, 0x00,
  0xa8, 0xed, 0xff, 0xff, 0x01, 0x00, 0x00, 0x00, 0x13, 0x00, 0x00, 0x00,
  0x03, 0x00, 0x00, 0x00, 0x12, 0x00, 0x00, 0x00, 0x03, 0x00, 0x00, 0x00,
  0x02, 0x00, 0x00, 0x00, 0xbe, 0xfe, 0xff, 0xff, 0x1c, 0x00, 0x00, 0x00,
  0x00, 0x00, 0x00, 0x08, 0x1c, 0x00, 0x00, 0x00, 0x20, 0x00, 0x00, 0x00,
  0x03, 0x00, 0x00, 0x00, 0x00, 0x00, 0x06, 0x00, 0x08, 0x00, 0x07, 0x00,
  0x06, 0x00, 0x00, 0x00, 0x00, 0x00, 0x00, 0x01, 0x01, 0x00, 0x00, 0x00,
  0x12, 0x00, 0x00, 0x00, 0x03, 0x00, 0x00, 0x00, 0x11, 0x00, 0x00, 0x00,
  0x05, 0x00, 0x00, 0x00, 0x04, 0x00, 0x00, 0x00, 0x8e, 0xff, 0xff, 0xff,
  0x14, 0x00, 0x00, 0x00, 0x00, 0x00, 0x00, 0x1b, 0x10, 0x00, 0x00, 0x00,
  0x14, 0x00, 0x00, 0x00, 0x02, 0x00, 0x00, 0x00, 0x1c, 0xee, 0xff, 0xff,
  0x01, 0x00, 0x00, 0x00, 0x11, 0x00, 0x00, 0x00, 0x02, 0x00, 0x00, 0x00,
  0x10, 0x00, 0x00, 0x00, 0x01, 0x00, 0x00, 0x00, 0xce, 0xfe, 0xff, 0xff,
  0x10, 0x00, 0x00, 0x00, 0x00, 0x00, 0x00, 0x01, 0x1c, 0x00, 0x00, 0x00,
  0x20, 0x00, 0x00, 0x00, 0xc0, 0xfe, 0xff, 0xff, 0x00, 0x00, 0x00, 0x01,
  0x01, 0x00, 0x00, 0x00, 0x01, 0x00, 0x00, 0x00, 0x00, 0x00, 0x00, 0x01,
  0x01, 0x00, 0x00, 0x00, 0x10, 0x00, 0x00, 0x00, 0x03, 0x00, 0x00, 0x00,
  0x0f, 0x00, 0x00, 0x00, 0x07, 0x00, 0x00, 0x00, 0x06, 0x00, 0x00, 0x00,
  0x00, 0x00, 0x0e, 0x00, 0x18, 0x00, 0x14, 0x00, 0x10, 0x00, 0x0c, 0x00,
  0x0b, 0x00, 0x04, 0x00, 0x0e, 0x00, 0x00, 0x00, 0x14, 0x00, 0x00, 0x00,
  0x00, 0x00, 0x00, 0x05, 0x24, 0x00, 0x00, 0x00, 0x28, 0x00, 0x00, 0x00,
  0x01, 0x00, 0x00, 0x00, 0x6e, 0xff, 0xff, 0xff, 0x02, 0x00, 0x00, 0x00,
  0x02, 0x00, 0x00, 0x00, 0x02, 0x00, 0x00, 0x00, 0x02, 0x00, 0x00, 0x00,
  0x00, 0x00, 0x00, 0x01, 0x01, 0x00, 0x00, 0x00, 0x0f, 0x00, 0x00, 0x00,
  0x01, 0x00, 0x00, 0x00, 0x0e, 0x00, 0x00, 0x00, 0x5e, 0xff, 0xff, 0xff,
  0x10, 0x00, 0x00, 0x00, 0x00, 0x00, 0x00, 0x01, 0x1c, 0x00, 0x00, 0x00,
  0x20, 0x00, 0x00, 0x00, 0x50, 0xff, 0xff, 0xff, 0x00, 0x00, 0x00, 0x01,
  0x01, 0x00, 0x00, 0x00, 0x01, 0x00, 0x00, 0x00, 0x00, 0x00, 0x00, 0x01,
  0x01, 0x00, 0x00, 0x00, 0x0e, 0x00, 0x00, 0x00, 0x03, 0x00, 0x00, 0x00,
  0x0d, 0x00, 0x00, 0x00, 0x09, 0x00, 0x00, 0x00, 0x08, 0x00, 0x00, 0x00,
  0x00, 0x00, 0x0e, 0x00, 0x1a, 0x00, 0x14, 0x00, 0x10, 0x00, 0x0c, 0x00,
  0x0b, 0x00, 0x04, 0x00, 0x0e, 0x00, 0x00, 0x00, 0x24, 0x00, 0x00, 0x00,
  0x00, 0x00, 0x00, 0x05, 0x34, 0x00, 0x00, 0x00, 0x38, 0x00, 0x00, 0x00,
  0x01, 0x00, 0x00, 0x00, 0x00, 0x00, 0x0e, 0x00, 0x18, 0x00, 0x17, 0x00,
  0x10, 0x00, 0x0c, 0x00, 0x08, 0x00, 0x04, 0x00, 0x0e, 0x00, 0x00, 0x00,
  0x02, 0x00, 0x00, 0x00, 0x02, 0x00, 0x00, 0x00, 0x02, 0x00, 0x00, 0x00,
  0x02, 0x00, 0x00, 0x00, 0x00, 0x00, 0x00, 0x01, 0x01, 0x00, 0x00, 0x00,
  0x0d, 0x00, 0x00, 0x00, 0x01, 0x00, 0x00, 0x00, 0x0c, 0x00, 0x00, 0x00,
  0x00, 0x00, 0x0e, 0x00, 0x14, 0x00, 0x00, 0x00, 0x10, 0x00, 0x0c, 0x00,
  0x0b, 0x00, 0x04, 0x00, 0x0e, 0x00, 0x00, 0x00, 0x1c, 0x00, 0x00, 0x00,
  0x00, 0x00, 0x00, 0x01, 0x28, 0x00, 0x00, 0x00, 0x2c, 0x00, 0x00, 0x00,
  0x0c, 0x00, 0x14, 0x00, 0x13, 0x00, 0x0c, 0x00, 0x08, 0x00, 0x07, 0x00,
  0x0c, 0x00, 0x00, 0x00, 0x00, 0x00, 0x00, 0x01, 0x01, 0x00, 0x00, 0x00,
  0x01, 0x00, 0x00, 0x00, 0x00, 0x00, 0x00, 0x01, 0x01, 0x00, 0x00, 0x00,
  0x0c, 0x00, 0x00, 0x00, 0x03, 0x00, 0x00, 0x00, 0x00, 0x00, 0x00, 0x00,
  0x0b, 0x00, 0x00, 0x00, 0x0a, 0x00, 0x00, 0x00, 0x01, 0x00, 0x00, 0x00,
  0x14, 0x00, 0x00, 0x00, 0x01, 0x00, 0x00, 0x00, 0x00, 0x00, 0x00, 0x00,
  0x15, 0x00, 0x00, 0x00, 0x68, 0x10, 0x00, 0x00, 0x0c, 0x10, 0x00, 0x00,
  0x94, 0x0f, 0x00, 0x00, 0x30, 0x0f, 0x00, 0x00, 0x1c, 0x0e, 0x00, 0x00,
  0x00, 0x0d, 0x00, 0x00, 0x8c, 0x0b, 0x00, 0x00, 0x08, 0x0a, 0x00, 0x00,
  0xf4, 0x08, 0x00, 0x00, 0xd0, 0x07, 0x00, 0x00, 0x1c, 0x07, 0x00, 0x00,
  0x58, 0x06, 0x00, 0x00, 0x84, 0x05, 0x00, 0x00, 0xe8, 0x04, 0x00, 0x00,
  0xec, 0x03, 0x00, 0x00, 0x50, 0x03, 0x00, 0x00, 0x74, 0x02, 0x00, 0x00,
  0xe0, 0x01, 0x00, 0x00, 0x24, 0x01, 0x00, 0x00, 0x80, 0x00, 0x00, 0x00,
  0x04, 0x00, 0x00, 0x00, 0x02, 0xf0, 0xff, 0xff, 0x00, 0x00, 0x00, 0x01,
  0x18, 0x00, 0x00, 0x00, 0x20, 0x00, 0x00, 0x00, 0x3c, 0x00, 0x00, 0x00,
  0x15, 0x00, 0x00, 0x00, 0x00, 0x00, 0x00, 0x09, 0x50, 0x00, 0x00, 0x00,
  0x02, 0x00, 0x00, 0x00, 0xff, 0xff, 0xff, 0xff, 0x01, 0x00, 0x00, 0x00,
  0xe4, 0xef, 0xff, 0xff, 0x08, 0x00, 0x00, 0x00, 0x10, 0x00, 0x00, 0x00,
  0x01, 0x00, 0x00, 0x00, 0x80, 0xff, 0xff, 0xff, 0xff, 0xff, 0xff, 0xff,
  0x01, 0x00, 0x00, 0x00, 0x00, 0x00, 0x80, 0x3b, 0x1b, 0x00, 0x00, 0x00,
  0x53, 0x74, 0x61, 0x74, 0x65, 0x66, 0x75, 0x6c, 0x50, 0x61, 0x72, 0x74,
  0x69, 0x74, 0x69, 0x6f, 0x6e, 0x65, 0x64, 0x43, 0x61, 0x6c, 0x6c, 0x5f,
  0x31, 0x3a, 0x30, 0x00, 0x02, 0x00, 0x00, 0x00, 0x01, 0x00, 0x00, 0x00,
  0x01, 0x00, 0x00, 0x00, 0x7a, 0xf0, 0xff, 0xff, 0x00, 0x00, 0x00, 0x01,
  0x18, 0x00, 0x00, 0x00, 0x20, 0x00, 0x00, 0x00, 0x40, 0x00, 0x00, 0x00,
  0x14, 0x00, 0x00, 0x00, 0x00, 0x00, 0x00, 0x09, 0x78, 0x00, 0x00, 0x00,
  0x02, 0x00, 0x00, 0x00, 0xff, 0xff, 0xff, 0xff, 0x01, 0x00, 0x00, 0x00,
  0x5c, 0xf0, 0xff, 0xff, 0x08, 0x00, 0x00, 0x00, 0x14, 0x00, 0x00, 0x00,
  0x01, 0x00, 0x00, 0x00, 0xcb, 0xff, 0xff, 0xff, 0xff, 0xff, 0xff, 0xff,
  0x00, 0x00, 0x00, 0x00, 0x01, 0x00, 0x00, 0x00, 0xb9, 0x7c, 0xae, 0x3d,
  0x3c, 0x00, 0x00, 0x00, 0x73, 0x65, 0x71, 0x75, 0x65, 0x6e, 0x74, 0x69,
  0x61, 0x6c, 0x5f, 0x31, 0x5f, 0x31, 0x2f, 0x64, 0x65, 0x6e, 0x73, 0x65,
  0x5f, 0x31, 0x5f, 0x32, 0x2f, 0x4d, 0x61, 0x74, 0x4d, 0x75, 0x6c, 0x3b,
  0x73, 0x65, 0x71, 0x75, 0x65, 0x6e, 0x74, 0x69, 0x61, 0x6c, 0x5f, 0x31,
  0x5f, 0x31, 0x2f, 0x64, 0x65, 0x6e, 0x73, 0x65, 0x5f, 0x31, 0x5f, 0x32,
  0x2f, 0x41, 0x64, 0x64, 0x00, 0x00, 0x00, 0x00, 0x02, 0x00, 0x00, 0x00,
  0x01, 0x00, 0x00, 0x00, 0x01, 0x00, 0x00, 0x00, 0x1a, 0xf1, 0xff, 0xff,
  0x00, 0x00, 0x00, 0x01, 0x18, 0x00, 0x00, 0x00, 0x20, 0x00, 0x00, 0x00,
  0x3c, 0x00, 0x00, 0x00, 0x13, 0x00, 0x00, 0x00, 0x00, 0x00, 0x00, 0x09,
  0x90, 0x00, 0x00, 0x00, 0x02, 0x00, 0x00, 0x00, 0xff, 0xff, 0xff, 0xff,
  0x10, 0x00, 0x00, 0x00, 0xfc, 0xf0, 0xff, 0xff, 0x08, 0x00, 0x00, 0x00,
  0x10, 0x00, 0x00, 0x00, 0x01, 0x00, 0x00, 0x00, 0x80, 0xff, 0xff, 0xff,
  0xff, 0xff, 0xff, 0xff, 0x01, 0x00, 0x00, 0x00, 0x9f, 0x9c, 0x55, 0x3c,
  0x58, 0x00, 0x00, 0x00, 0x73, 0x65, 0x71, 0x75, 0x65, 0x6e, 0x74, 0x69,
  0x61, 0x6c, 0x5f, 0x31, 0x5f, 0x31, 0x2f, 0x64, 0x65, 0x6e, 0x73, 0x65,
  0x5f, 0x31, 0x2f, 0x4d, 0x61, 0x74, 0x4d, 0x75, 0x6c, 0x3b, 0x73, 0x65,
  0x71, 0x75, 0x65, 0x6e, 0x74, 0x69, 0x61, 0x6c, 0x5f, 0x31, 0x5f, 0x31,
  0x2f, 0x64, 0x65, 0x6e, 0x73, 0x65, 0x5f, 0x31, 0x2f, 0x52, 0x65, 0x6c,
  0x75, 0x3b, 0x73, 0x65, 0x71, 0x75, 0x65, 0x6e, 0x74, 0x69, 0x61, 0x6c,
  0x5f, 0x31, 0x5f, 0x31, 0x2f, 0x64, 0x65, 0x6e, 0x73, 0x65, 0x5f, 0x31,
  0x2f, 0x42, 0x69, 0x61, 0x73, 0x41, 0x64, 0x64, 0x00, 0x00, 0x00, 0x00,
  0x02, 0x00, 0x00, 0x00, 0x01, 0x00, 0x00, 0x00, 0x10, 0x00, 0x00, 0x00,
  0xd2, 0xf1, 0xff, 0xff, 0x00, 0x00, 0x00, 0x01, 0x18, 0x00, 0x00, 0x00,
  0x20, 0x00, 0x00, 0x00, 0x40, 0x00, 0x00, 0x00, 0x12, 0x00, 0x00, 0x00,
  0x00, 0x00, 0x00, 0x09, 0x68, 0x00, 0x00, 0x00, 0x02, 0x00, 0x00, 0x00,
  0xff, 0xff, 0xff, 0xff, 0x18, 0x00, 0x00, 0x00, 0xb4, 0xf1, 0xff, 0xff,
  0x08, 0x00, 0x00, 0x00, 0x14, 0x00, 0x00, 0x00, 0x01, 0x00, 0x00, 0x00,
  0x80, 0xff, 0xff, 0xff, 0xff, 0xff, 0xff, 0xff, 0x00, 0x00, 0x00, 0x00,
  0x01, 0x00, 0x00, 0x00, 0xc2, 0x93, 0x4d, 0x3c, 0x2e, 0x00, 0x00, 0x00,
  0x73, 0x65, 0x71, 0x75, 0x65, 0x6e, 0x74, 0x69, 0x61, 0x6c, 0x5f, 0x31,
  0x5f, 0x31, 0x2f, 0x67, 0x6c, 0x6f, 0x62, 0x61, 0x6c, 0x5f, 0x61, 0x76,
  0x65, 0x72, 0x61, 0x67, 0x65, 0x5f, 0x70, 0x6f, 0x6f, 0x6c, 0x69, 0x6e,
  0x67, 0x32, 0x64, 0x5f, 0x31, 0x2f, 0x4d, 0x65, 0x61, 0x6e, 0x00, 0x00,
  0x02, 0x00, 0x00, 0x00, 0x01, 0x00, 0x00, 0x00, 0x18, 0x00, 0x00, 0x00,
  0x62, 0xf2, 0xff, 0xff, 0x00, 0x00, 0x00, 0x01, 0x18, 0x00, 0x00, 0x00,
  0x28, 0x00, 0x00, 0x00, 0x48, 0x00, 0x00, 0x00, 0x11, 0x00, 0x00, 0x00,
  0x00, 0x00, 0x00, 0x09, 0xa8, 0x00, 0x00, 0x00, 0x04, 0x00, 0x00, 0x00,
  0xff, 0xff, 0xff, 0xff, 0x14, 0x00, 0x00, 0x00, 0x14, 0x00, 0x00, 0x00,
  0x18, 0x00, 0x00, 0x00, 0x4c, 0xf2, 0xff, 0xff, 0x08, 0x00, 0x00, 0x00,
  0x14, 0x00, 0x00, 0x00, 0x01, 0x00, 0x00, 0x00, 0x80, 0xff, 0xff, 0xff,
  0xff, 0xff, 0xff, 0xff, 0x00, 0x00, 0x00, 0x00, 0x01, 0x00, 0x00, 0x00,
  0x7c, 0xde, 0x5d, 0x3d, 0x67, 0x00, 0x00, 0x00, 0x73, 0x65, 0x71, 0x75,
  0x65, 0x6e, 0x74, 0x69, 0x61, 0x6c, 0x5f, 0x31, 0x5f, 0x31, 0x2f, 0x63,
  0x6f, 0x6e, 0x76, 0x32, 0x64, 0x5f, 0x32, 0x5f, 0x31, 0x2f, 0x52, 0x65,
  0x6c, 0x75, 0x3b, 0x73, 0x65, 0x71, 0x75, 0x65, 0x6e, 0x74, 0x69, 0x61,
  0x6c, 0x5f, 0x31, 0x5f, 0x31, 0x2f, 0x63, 0x6f, 0x6e, 0x76, 0x32, 0x64,
  0x5f, 0x32, 0x5f, 0x31, 0x2f, 0x42, 0x69, 0x61, 0x73, 0x41, 0x64, 0x64,
  0x3b, 0x73, 0x65, 0x71, 0x75, 0x65, 0x6e, 0x74, 0x69, 0x61, 0x6c, 0x5f,
  0x31, 0x5f, 0x31, 0x2f, 0x63, 0x6f, 0x6e, 0x76, 0x32, 0x64, 0x5f, 0x32,
  0x5f, 0x31, 0x2f, 0x63, 0x6f, 0x6e, 0x76, 0x6f, 0x6c, 0x75, 0x74, 0x69,
  0x6f, 0x6e, 0x3b, 0x00, 0x04, 0x00, 0x00, 0x00, 0x01, 0x00, 0x00, 0x00,
  0x14, 0x00, 0x00, 0x00, 0x14, 0x00, 0x00, 0x00, 0x18, 0x00, 0x00, 0x00,
  0x3a, 0xf3, 0xff, 0xff, 0x00, 0x00, 0x00, 0x01, 0x18, 0x00, 0x00, 0x00,
  0x28, 0x00, 0x00, 0x00, 0x44, 0x00, 0x00, 0x00, 0x10, 0x00, 0x00, 0x00,
  0x00, 0x00, 0x00, 0x09, 0x68, 0x00, 0x00, 0x00, 0x04, 0x00, 0x00, 0x00,
  0xff, 0xff, 0xff, 0xff, 0x16, 0x00, 0x00, 0x00, 0x16, 0x00, 0x00, 0x00,
  0x10, 0x00, 0x00, 0x00, 0x24, 0xf3, 0xff, 0xff, 0x08, 0x00, 0x00, 0x00,
  0x10, 0x00, 0x00, 0x00, 0x01, 0x00, 0x00, 0x00, 0x80, 0xff, 0xff, 0xff,
  0xff, 0xff, 0xff, 0xff, 0x01, 0x00, 0x00, 0x00, 0xd3, 0x48, 0xbf, 0x3c,
  0x2a, 0x00, 0x00, 0x00, 0x73, 0x65, 0x71, 0x75, 0x65, 0x6e, 0x74, 0x69,
  0x61, 0x6c, 0x5f, 0x31, 0x5f, 0x31, 0x2f, 0x6d, 0x61, 0x78, 0x5f, 0x70,
  0x6f, 0x6f, 0x6c, 0x69, 0x6e, 0x67, 0x32, 0x64, 0x5f, 0x31, 0x5f, 0x32,
  0x2f, 0x4d, 0x61, 0x78, 0x50, 0x6f, 0x6f, 0x6c, 0x32, 0x64, 0x00, 0x00,
  0x04, 0x00, 0x00, 0x00, 0x01, 0x00, 0x00, 0x00, 0x16, 0x00, 0x00, 0x00,
  0x16, 0x00, 0x00, 0x00, 0x10, 0x00, 0x00, 0x00, 0xd2, 0xf3, 0xff, 0xff,
  0x00, 0x00, 0x00, 0x01, 0x18, 0x00, 0x00, 0x00, 0x28, 0x00, 0x00, 0x00,
  0x44, 0x00, 0x00, 0x00, 0x0f, 0x00, 0x00, 0x00, 0x00, 0x00, 0x00, 0x09,
  0xc8, 0x00, 0x00, 0x00, 0x04, 0x00, 0x00, 0x00, 0xff, 0xff, 0xff, 0xff,
  0x2d, 0x00, 0x00, 0x00, 0x2d, 0x00, 0x00, 0x00, 0x10, 0x00, 0x00, 0x00,
  0xbc, 0xf3, 0xff, 0xff, 0x08, 0x00, 0x00, 0x00, 0x10, 0x00, 0x00, 0x00,
  0x01, 0x00, 0x00, 0x00, 0x80, 0xff, 0xff, 0xff, 0xff, 0xff, 0xff, 0xff,
  0x01, 0x00, 0x00, 0x00, 0xd3, 0x48, 0xbf, 0x3c, 0x88, 0x00, 0x00, 0x00,
  0x73, 0x65, 0x71, 0x75, 0x65, 0x6e, 0x74, 0x69, 0x61, 0x6c, 0x5f, 0x31,
  0x5f, 0x31, 0x2f, 0x63, 0x6f, 0x6e, 0x76, 0x32, 0x64, 0x5f, 0x31, 0x5f,
  0x32, 0x2f, 0x52, 0x65, 0x6c, 0x75, 0x3b, 0x73, 0x65, 0x71, 0x75, 0x65,
  0x6e, 0x74, 0x69, 0x61, 0x6c, 0x5f, 0x31, 0x5f, 0x31, 0x2f, 0x63, 0x6f,
  0x6e, 0x76, 0x32, 0x64, 0x5f, 0x31, 0x5f, 0x32, 0x2f, 0x42, 0x69, 0x61,
  0x73, 0x41, 0x64, 0x64, 0x3b, 0x73, 0x65, 0x71, 0x75, 0x65, 0x6e, 0x74,
  0x69, 0x61, 0x6c, 0x5f, 0x31, 0x5f, 0x31, 0x2f, 0x63, 0x6f, 0x6e, 0x76,
  0x32, 0x64, 0x5f, 0x31, 0x5f, 0x32, 0x2f, 0x63, 0x6f, 0x6e, 0x76, 0x6f,
  0x6c, 0x75, 0x74, 0x69, 0x6f, 0x6e, 0x3b, 0x73, 0x65, 0x71, 0x75, 0x65,
  0x6e, 0x74, 0x69, 0x61, 0x6c, 0x5f, 0x31, 0x5f, 0x31, 0x2f, 0x63, 0x6f,
  0x6e, 0x76, 0x32, 0x64, 0x5f, 0x31, 0x5f, 0x32, 0x2f, 0x53, 0x71, 0x75,
  0x65, 0x65, 0x7a, 0x65, 0x00, 0x00, 0x00, 0x00, 0x04, 0x00, 0x00, 0x00,
  0x01, 0x00, 0x00, 0x00, 0x2d, 0x00, 0x00, 0x00, 0x2d, 0x00, 0x00, 0x00,
  0x10, 0x00, 0x00, 0x00, 0xca, 0xf4, 0xff, 0xff, 0x00, 0x00, 0x00, 0x01,
  0x18, 0x00, 0x00, 0x00, 0x28, 0x00, 0x00, 0x00, 0x44, 0x00, 0x00, 0x00,
  0x0e, 0x00, 0x00, 0x00, 0x00, 0x00, 0x00, 0x09, 0x68, 0x00, 0x00, 0x00,
  0x04, 0x00, 0x00, 0x00, 0xff, 0xff, 0xff, 0xff, 0x2f, 0x00, 0x00, 0x00,
  0x2f, 0x00, 0x00, 0x00, 0x08, 0x00, 0x00, 0x00, 0xb4, 0xf4, 0xff, 0xff,
  0x08, 0x00, 0x00, 0x00, 0x10, 0x00, 0x00, 0x00, 0x01, 0x00, 0x00, 0x00,
  0x80, 0xff, 0xff, 0xff, 0xff, 0xff, 0xff, 0xff, 0x01, 0x00, 0x00, 0x00,
  0x2e, 0x64, 0x61, 0x3c, 0x28, 0x00, 0x00, 0x00, 0x73, 0x65, 0x71, 0x75,
  0x65, 0x6e, 0x74, 0x69, 0x61, 0x6c, 0x5f, 0x31, 0x5f, 0x31, 0x2f, 0x6d,
  0x61, 0x78, 0x5f, 0x70, 0x6f, 0x6f, 0x6c, 0x69, 0x6e, 0x67, 0x32, 0x64,
  0x5f, 0x31, 0x2f, 0x4d, 0x61, 0x78, 0x50, 0x6f, 0x6f, 0x6c, 0x32, 0x64,
  0x00, 0x00, 0x00, 0x00, 0x04, 0x00, 0x00, 0x00, 0x01, 0x00, 0x00, 0x00,
  0x2f, 0x00, 0x00, 0x00, 0x2f, 0x00, 0x00, 0x00, 0x08, 0x00, 0x00, 0x00,
  0x62, 0xf5, 0xff, 0xff, 0x00, 0x00, 0x00, 0x01, 0x18, 0x00, 0x00, 0x00,
  0x28, 0x00, 0x00, 0x00, 0x44, 0x00, 0x00, 0x00, 0x0d, 0x00, 0x00, 0x00,
  0x00, 0x00, 0x00, 0x09, 0xa0, 0x00, 0x00, 0x00, 0x04, 0x00, 0x00, 0x00,
  0xff, 0xff, 0xff, 0xff, 0x5e, 0x00, 0x00, 0x00, 0x5e, 0x00, 0x00, 0x00,
  0x08, 0x00, 0x00, 0x00, 0x4c, 0xf5, 0xff, 0xff, 0x08, 0x00, 0x00, 0x00,
  0x10, 0x00, 0x00, 0x00, 0x01, 0x00, 0x00, 0x00, 0x80, 0xff, 0xff, 0xff,
  0xff, 0xff, 0xff, 0xff, 0x01, 0x00, 0x00, 0x00, 0x2e, 0x64, 0x61, 0x3c,
  0x62, 0x00, 0x00, 0x00, 0x73, 0x65, 0x71, 0x75, 0x65, 0x6e, 0x74, 0x69,
  0x61, 0x6c, 0x5f, 0x31, 0x5f, 0x31, 0x2f, 0x63, 0x6f, 0x6e, 0x76, 0x32,
  0x64, 0x5f, 0x31, 0x2f, 0x52, 0x65, 0x6c, 0x75, 0x3b, 0x73, 0x65, 0x71,
  0x75, 0x65, 0x6e, 0x74, 0x69, 0x61, 0x6c, 0x5f, 0x31, 0x5f, 0x31, 0x2f,
  0x63, 0x6f, 0x6e, 0x76, 0x32, 0x64, 0x5f, 0x31, 0x2f, 0x42, 0x69, 0x61,
  0x73, 0x41, 0x64, 0x64, 0x3b, 0x73, 0x65, 0x71, 0x75, 0x65, 0x6e, 0x74,
  0x69, 0x61, 0x6c, 0x5f, 0x31, 0x5f, 0x31, 0x2f, 0x63, 0x6f, 0x6e, 0x76,
  0x32, 0x64, 0x5f, 0x31, 0x2f, 0x63, 0x6f, 0x6e, 0x76, 0x6f, 0x6c, 0x75,
  0x74, 0x69, 0x6f, 0x6e, 0x3b, 0x31, 0x00, 0x00, 0x04, 0x00, 0x00, 0x00,
  0x01, 0x00, 0x00, 0x00, 0x5e, 0x00, 0x00, 0x00, 0x5e, 0x00, 0x00, 0x00,
  0x08, 0x00, 0x00, 0x00, 0x8a, 0xf6, 0xff, 0xff, 0x00, 0x00, 0x00, 0x01,
  0x14, 0x00, 0x00, 0x00, 0x88, 0x00, 0x00, 0x00, 0x0c, 0x00, 0x00, 0x00,
  0x00, 0x00, 0x00, 0x09, 0x94, 0x00, 0x00, 0x00, 0x04, 0xf6, 0xff, 0xff,
  0x08, 0x00, 0x00, 0x00, 0x4c, 0x00, 0x00, 0x00, 0x08, 0x00, 0x00, 0x00,
  0x00, 0x00, 0x00, 0x00, 0x00, 0x00, 0x00, 0x00, 0x00, 0x00, 0x00, 0x00,
  0x00, 0x00, 0x00, 0x00, 0x00, 0x00, 0x00, 0x00, 0x00, 0x00, 0x00, 0x00,
  0x00, 0x00, 0x00, 0x00, 0x00, 0x00, 0x00, 0x00, 0x00, 0x00, 0x00, 0x00,
  0x00, 0x00, 0x00, 0x00, 0x00, 0x00, 0x00, 0x00, 0x00, 0x00, 0x00, 0x00,
  0x00, 0x00, 0x00, 0x00, 0x00, 0x00, 0x00, 0x00, 0x00, 0x00, 0x00, 0x00,
  0x00, 0x00, 0x00, 0x00, 0x00, 0x00, 0x00, 0x00, 0x08, 0x00, 0x00, 0x00,
  0x4d, 0xa4, 0x88, 0x3b, 0xfe, 0x55, 0x74, 0x3b, 0x7d, 0x96, 0x09, 0x3b,
  0x39, 0x55, 0x02, 0x3b, 0xb3, 0x27, 0x54, 0x3b, 0x19, 0x77, 0xef, 0x3a,
  0xc2, 0xa1, 0x27, 0x3b, 0x8f, 0x5e, 0x6d, 0x3b, 0x12, 0x00, 0x00, 0x00,
  0x74, 0x66, 0x6c, 0x2e, 0x70, 0x73, 0x65, 0x75, 0x64, 0x6f, 0x5f, 0x71,
  0x63, 0x6f, 0x6e, 0x73, 0x74, 0x39, 0x00, 0x00, 0x04, 0x00, 0x00, 0x00,
  0x08, 0x00, 0x00, 0x00, 0x03, 0x00, 0x00, 0x00, 0x03, 0x00, 0x00, 0x00,
  0x01, 0x00, 0x00, 0x00, 0x4a, 0xf7, 0xff, 0xff, 0x00, 0x00, 0x00, 0x01,
  0x14, 0x00, 0x00, 0x00, 0x84, 0x00, 0x00, 0x00, 0x0b, 0x00, 0x00, 0x00,
  0x00, 0x00, 0x00, 0x02, 0x90, 0x00, 0x00, 0x00, 0xc4, 0xf6, 0xff, 0xff,
  0x08, 0x00, 0x00, 0x00, 0x48, 0x00, 0x00, 0x00, 0x08, 0x00, 0x00, 0x00,
  0x00, 0x00, 0x00, 0x00, 0x00, 0x00, 0x00, 0x00, 0x00, 0x00, 0x00, 0x00,
  0x00, 0x00, 0x00, 0x00, 0x00, 0x00, 0x00, 0x00, 0x00, 0x00, 0x00, 0x00,
  0x00, 0x00, 0x00, 0x00, 0x00, 0x00, 0x00, 0x00, 0x00, 0x00, 0x00, 0x00,
  0x00, 0x00, 0x00, 0x00, 0x00, 0x00, 0x00, 0x00, 0x00, 0x00, 0x00, 0x00,
  0x00, 0x00, 0x00, 0x00, 0x00, 0x00, 0x00, 0x00, 0x00, 0x00, 0x00, 0x00,
  0x00, 0x00, 0x00, 0x00, 0x08, 0x00, 0x00, 0x00, 0xd7, 0x48, 0xab, 0x37,
  0x22, 0x24, 0x99, 0x37, 0x6e, 0x78, 0x2c, 0x37, 0x4b, 0x60, 0x23, 0x37,
  0xa9, 0xf8, 0x84, 0x37, 0x9f, 0x16, 0x16, 0x37, 0xaa, 0x21, 0x52, 0x37,
  0x57, 0xc6, 0x94, 0x37, 0x12, 0x00, 0x00, 0x00, 0x74, 0x66, 0x6c, 0x2e,
  0x70, 0x73, 0x65, 0x75, 0x64, 0x6f, 0x5f, 0x71, 0x63, 0x6f, 0x6e, 0x73,
  0x74, 0x38, 0x00, 0x00, 0x01, 0x00, 0x00, 0x00, 0x08, 0x00, 0x00, 0x00,
  0xfa, 0xf7, 0xff, 0xff, 0x00, 0x00, 0x00, 0x01, 0x14, 0x00, 0x00, 0x00,
  0xe8, 0x00, 0x00, 0x00, 0x0a, 0x00, 0x00, 0x00, 0x00, 0x00, 0x00, 0x09,
  0xf4, 0x00, 0x00, 0x00, 0x74, 0xf7, 0xff, 0xff, 0x08, 0x00, 0x00, 0x00,
  0x8c, 0x00, 0x00, 0x00, 0x10, 0x00, 0x00, 0x00, 0x00, 0x00, 0x00, 0x00,
  0x00, 0x00, 0x00, 0x00, 0x00, 0x00, 0x00, 0x00, 0x00, 0x00, 0x00, 0x00,
  0x00, 0x00, 0x00, 0x00, 0x00, 0x00, 0x00, 0x00, 0x00, 0x00, 0x00, 0x00,
  0x00, 0x00, 0x00, 0x00, 0x00, 0x00, 0x00, 0x00, 0x00, 0x00, 0x00, 0x00,
  0x00, 0x00, 0x00, 0x00, 0x00, 0x00, 0x00, 0x00, 0x00, 0x00, 0x00, 0x00,
  0x00, 0x00, 0x00, 0x00, 0x00, 0x00, 0x00, 0x00, 0x00, 0x00, 0x00, 0x00,
  0x00, 0x00, 0x00, 0x00, 0x00, 0x00, 0x00, 0x00, 0x00, 0x00, 0x00, 0x00,
  0x00, 0x00, 0x00, 0x00, 0x00, 0x00, 0x00, 0x00, 0x00, 0x00, 0x00, 0x00,
  0x00, 0x00, 0x00, 0x00, 0x00, 0x00, 0x00, 0x00, 0x00, 0x00, 0x00, 0x00,
  0x00, 0x00, 0x00, 0x00, 0x00, 0x00, 0x00, 0x00, 0x00, 0x00, 0x00, 0x00,
  0x00, 0x00, 0x00, 0x00, 0x00, 0x00, 0x00, 0x00, 0x00, 0x00, 0x00, 0x00,
  0x00, 0x00, 0x00, 0x00, 0x00, 0x00, 0x00, 0x00, 0x10, 0x00, 0x00, 0x00,
  0x1d, 0xfb, 0x4f, 0x3c, 0xf6, 0xe8, 0xf8, 0x3c, 0x88, 0x12, 0x12, 0x3c,
  0x58, 0x58, 0x95, 0x3c, 0x17, 0xa4, 0xfb, 0x3b, 0x82, 0x56, 0xe0, 0x3b,
  0x3f, 0xc6, 0x85, 0x3b, 0x91, 0xb2, 0xeb, 0x3b, 0xeb, 0x03, 0x45, 0x3c,
  0xf5, 0x87, 0xc3, 0x3c, 0x45, 0x7b, 0x08, 0x3c, 0x3b, 0x3c, 0x8f, 0x3b,
  0x61, 0xe9, 0x80, 0x3b, 0xe0, 0x02, 0xc3, 0x3b, 0xfc, 0xae, 0xa3, 0x3c,
  0xa2, 0xeb, 0xb4, 0x3c, 0x12, 0x00, 0x00, 0x00, 0x74, 0x66, 0x6c, 0x2e,
  0x70, 0x73, 0x65, 0x75, 0x64, 0x6f, 0x5f, 0x71, 0x63, 0x6f, 0x6e, 0x73,
  0x74, 0x37, 0x00, 0x00, 0x04, 0x00, 0x00, 0x00, 0x10, 0x00, 0x00, 0x00,
  0x03, 0x00, 0x00, 0x00, 0x03, 0x00, 0x00, 0x00, 0x08, 0x00, 0x00, 0x00,
  0x1a, 0xf9, 0xff, 0xff, 0x00, 0x00, 0x00, 0x01, 0x14, 0x00, 0x00, 0x00,
  0xe4, 0x00, 0x00, 0x00, 0x09, 0x00, 0x00, 0x00, 0x00, 0x00, 0x00, 0x02,
  0xf0, 0x00, 0x00, 0x00, 0x94, 0xf8, 0xff, 0xff, 0x08, 0x00, 0x00, 0x00,
  0x88, 0x00, 0x00, 0x00, 0x10, 0x00, 0x00, 0x00, 0x00, 0x00, 0x00, 0x00,
  0x00, 0x00, 0x00, 0x00, 0x00, 0x00, 0x00, 0x00, 0x00, 0x00, 0x00, 0x00,
  0x00, 0x00, 0x00, 0x00, 0x00, 0x00, 0x00, 0x00, 0x00, 0x00, 0x00, 0x00,
  0x00, 0x00, 0x00, 0x00, 0x00, 0x00, 0x00, 0x00, 0x00, 0x00, 0x00, 0x00,
  0x00, 0x00, 0x00, 0x00, 0x00, 0x00, 0x00, 0x00, 0x00, 0x00, 0x00, 0x00,
  0x00, 0x00, 0x00, 0x00, 0x00, 0x00, 0x00, 0x00, 0x00, 0x00, 0x00, 0x00,
  0x00, 0x00, 0x00, 0x00, 0x00, 0x00, 0x00, 0x00, 0x00, 0x00, 0x00, 0x00,
  0x00, 0x00, 0x00, 0x00, 0x00, 0x00, 0x00, 0x00, 0x00, 0x00, 0x00, 0x00,
  0x00, 0x00, 0x00, 0x00, 0x00, 0x00, 0x00, 0x00, 0x00, 0x00, 0x00, 0x00,
  0x00, 0x00, 0x00, 0x00, 0x00, 0x00, 0x00, 0x00, 0x00, 0x00, 0x00, 0x00,
  0x00, 0x00, 0x00, 0x00, 0x00, 0x00, 0x00, 0x00, 0x00, 0x00, 0x00, 0x00,
  0x00, 0x00, 0x00, 0x00, 0x10, 0x00, 0x00, 0x00, 0x18, 0x1d, 0x37, 0x39,
  0x28, 0x26, 0xdb, 0x39, 0x73, 0x9b, 0x00, 0x39, 0x17, 0x7d, 0x83, 0x39,
  0xb2, 0x8d, 0xdd, 0x38, 0xd2, 0x83, 0xc5, 0x38, 0x2e, 0x8f, 0x6b, 0x38,
  0x2e, 0x84, 0xcf, 0x38, 0x8a, 0x75, 0x2d, 0x39, 0x03, 0x27, 0xac, 0x39,
  0x81, 0x53, 0xf0, 0x38, 0xfa, 0x37, 0x7c, 0x38, 0x21, 0xff, 0x62, 0x38,
  0xd7, 0xb1, 0xab, 0x38, 0xd9, 0x1c, 0x90, 0x39, 0xe6, 0x49, 0x9f, 0x39,
  0x12, 0x00, 0x00, 0x00, 0x74, 0x66, 0x6c, 0x2e, 0x70, 0x73, 0x65, 0x75,
  0x64, 0x6f, 0x5f, 0x71, 0x63, 0x6f, 0x6e, 0x73, 0x74, 0x36, 0x00, 0x00,
  0x01, 0x00, 0x00, 0x00, 0x10, 0x00, 0x00, 0x00, 0x2a, 0xfa, 0xff, 0xff,
  0x00, 0x00, 0x00, 0x01, 0x14, 0x00, 0x00, 0x00, 0x48, 0x01, 0x00, 0x00,
  0x08, 0x00, 0x00, 0x00, 0x00, 0x00, 0x00, 0x09, 0x54, 0x01, 0x00, 0x00,
  0xa4, 0xf9, 0xff, 0xff, 0x08, 0x00, 0x00, 0x00, 0xcc, 0x00, 0x00, 0x00,
  0x18, 0x00, 0x00, 0x00, 0x00, 0x00, 0x00, 0x00, 0x00, 0x00, 0x00, 0x00,
  0x00, 0x00, 0x00, 0x00, 0x00, 0x00, 0x00, 0x00, 0x00, 0x00, 0x00, 0x00,
  0x00, 0x00, 0x00, 0x00, 0x00, 0x00, 0x00, 0x00, 0x00, 0x00, 0x00, 0x00,
  0x00, 0x00, 0x00, 0x00, 0x00, 0x00, 0x00, 0x00, 0x00, 0x00, 0x00, 0x00,
  0x00, 0x00, 0x00, 0x00, 0x00, 0x00, 0x00, 0x00, 0x00, 0x00, 0x00, 0x00,
  0x00, 0x00, 0x00, 0x00, 0x00, 0x00, 0x00, 0x00, 0x00, 0x00, 0x00, 0x00,
  0x00, 0x00, 0x00, 0x00, 0x00, 0x00, 0x00, 0x00, 0x00, 0x00, 0x00, 0x00,
  0x00, 0x00, 0x00, 0x00, 0x00, 0x00, 0x00, 0x00, 0x00, 0x00, 0x00, 0x00,
  0x00, 0x00, 0x00, 0x00, 0x00, 0x00, 0x00, 0x00, 0x00, 0x00, 0x00, 0x00,
  0x00, 0x00, 0x00, 0x00, 0x00, 0x00, 0x00, 0x00, 0x00, 0x00, 0x00, 0x00,
  0x00, 0x00, 0x00, 0x00, 0x00, 0x00, 0x00, 0x00, 0x00, 0x00, 0x00, 0x00,
  0x00, 0x00, 0x00, 0x00, 0x00, 0x00, 0x00, 0x00, 0x00, 0x00, 0x00, 0x00,
  0x00, 0x00, 0x00, 0x00, 0x00, 0x00, 0x00, 0x00, 0x00, 0x00, 0x00, 0x00,
  0x00, 0x00, 0x00, 0x00, 0x00, 0x00, 0x00, 0x00, 0x00, 0x00, 0x00, 0x00,
  0x00, 0x00, 0x00, 0x00, 0x00, 0x00, 0x00, 0x00, 0x00, 0x00, 0x00, 0x00,
  0x00, 0x00, 0x00, 0x00, 0x00, 0x00, 0x00, 0x00, 0x00, 0x00, 0x00, 0x00,
  0x00, 0x00, 0x00, 0x00, 0x00, 0x00, 0x00, 0x00, 0x18, 0x00, 0x00, 0x00,
  0x00, 0xb0, 0x99, 0x3a, 0xb8, 0x0e, 0x10, 0x3c, 0x25, 0xd3, 0x02, 0x3c,
  0xcf, 0x62, 0xee, 0x3b, 0x97, 0xc8, 0x8d, 0x3c, 0xe0, 0x05, 0x07, 0x3c,
  0x3f, 0x7c, 0x10, 0x3c, 0x5c, 0x05, 0x08, 0x3c, 0xbe, 0xbc, 0x03, 0x3c,
  0x2a, 0x52, 0xf6, 0x3a, 0x22, 0x62, 0x05, 0x3c, 0x36, 0xd2, 0xea, 0x3b,
  0xcf, 0x1c, 0xb6, 0x3a, 0x39, 0x64, 0xa7, 0x3c, 0x3c, 0x48, 0xd3, 0x3a,
  0x0f, 0x50, 0xfb, 0x3b, 0xe1, 0x9c, 0x09, 0x3c, 0xa3, 0x85, 0xa4, 0x3a,
  0x23, 0xdd, 0xac, 0x3a, 0x94, 0x17, 0xee, 0x3b, 0x45, 0xa6, 0x4e, 0x3c,
  0x9d, 0x8c, 0xf4, 0x3b, 0xcf, 0x80, 0x3b, 0x3c, 0xfe, 0x9c, 0xd2, 0x3b,
  0x12, 0x00, 0x00, 0x00, 0x74, 0x66, 0x6c, 0x2e, 0x70, 0x73, 0x65, 0x75,
  0x64, 0x6f, 0x5f, 0x71, 0x63, 0x6f, 0x6e, 0x73, 0x74, 0x35, 0x00, 0x00,
  0x04, 0x00, 0x00, 0x00, 0x18, 0x00, 0x00, 0x00, 0x03, 0x00, 0x00, 0x00,
  0x03, 0x00, 0x00, 0x00, 0x10, 0x00, 0x00, 0x00, 0xaa, 0xfb, 0xff, 0xff,
  0x00, 0x00, 0x00, 0x01, 0x14, 0x00, 0x00, 0x00, 0x44, 0x01, 0x00, 0x00,
  0x07, 0x00, 0x00, 0x00, 0x00, 0x00, 0x00, 0x02, 0x50, 0x01, 0x00, 0x00,
  0x24, 0xfb, 0xff, 0xff, 0x08, 0x00, 0x00, 0x00, 0xc8, 0x00, 0x00, 0x00,
  0x18, 0x00, 0x00, 0x00, 0x00, 0x00, 0x00, 0x00, 0x00, 0x00, 0x00, 0x00,
  0x00, 0x00, 0x00, 0x00, 0x00, 0x00, 0x00, 0x00, 0x00, 0x00, 0x00, 0x00,
  0x00, 0x00, 0x00, 0x00, 0x00, 0x00, 0x00, 0x00, 0x00, 0x00, 0x00, 0x00,
  0x00, 0x00, 0x00, 0x00, 0x00, 0x00, 0x00, 0x00, 0x00, 0x00, 0x00, 0x00,
  0x00, 0x00, 0x00, 0x00, 0x00, 0x00, 0x00, 0x00, 0x00, 0x00, 0x00, 0x00,
  0x00, 0x00, 0x00, 0x00, 0x00, 0x00, 0x00, 0x00, 0x00, 0x00, 0x00, 0x00,
  0x00, 0x00, 0x00, 0x00, 0x00, 0x00, 0x00, 0x00, 0x00, 0x00, 0x00, 0x00,
  0x00, 0x00, 0x00, 0x00, 0x00, 0x00, 0x00, 0x00, 0x00, 0x00, 0x00, 0x00,
  0x00, 0x00, 0x00, 0x00, 0x00, 0x00, 0x00, 0x00, 0x00, 0x00, 0x00, 0x00,
  0x00, 0x00, 0x00, 0x00, 0x00, 0x00, 0x00, 0x00, 0x00, 0x00, 0x00, 0x00,
  0x00, 0x00, 0x00, 0x00, 0x00, 0x00, 0x00, 0x00, 0x00, 0x00, 0x00, 0x00,
  0x00, 0x00, 0x00, 0x00, 0x00, 0x00, 0x00, 0x00, 0x00, 0x00, 0x00, 0x00,
  0x00, 0x00, 0x00, 0x00, 0x00, 0x00, 0x00, 0x00, 0x00, 0x00, 0x00, 0x00,
  0x00, 0x00, 0x00, 0x00, 0x00, 0x00, 0x00, 0x00, 0x00, 0x00, 0x00, 0x00,
  0x00, 0x00, 0x00, 0x00, 0x00, 0x00, 0x00, 0x00, 0x00, 0x00, 0x00, 0x00,
  0x00, 0x00, 0x00, 0x00, 0x00, 0x00, 0x00, 0x00, 0x00, 0x00, 0x00, 0x00,
  0x00, 0x00, 0x00, 0x00, 0x18, 0x00, 0x00, 0x00, 0x10, 0xac, 0xe5, 0x37,
  0xec, 0x47, 0x57, 0x39, 0x80, 0x81, 0x43, 0x39, 0x89, 0x1f, 0x32, 0x39,
  0xfc, 0xe1, 0xd3, 0x39, 0x96, 0xc7, 0x49, 0x39, 0x9a, 0xeb, 0x57, 0x39,
  0x63, 0x45, 0x4b, 0x39, 0x97, 0xde, 0x44, 0x39, 0x5f, 0x0d, 0x38, 0x38,
  0x52, 0x54, 0x47, 0x39, 0xa3, 0x75, 0x2f, 0x39, 0x4d, 0x13, 0x08, 0x38,
  0xc9, 0x26, 0xfa, 0x39, 0xff, 0xde, 0x1d, 0x38, 0x39, 0xc8, 0x3b, 0x39,
  0x63, 0xa6, 0x4d, 0x39, 0x04, 0xdd, 0xf5, 0x37, 0x2a, 0x2a, 0x01, 0x38,
  0x52, 0xe7, 0x31, 0x39, 0xd7, 0x68, 0x9a, 0x39, 0x7a, 0xba, 0x36, 0x39,
  0x71, 0x1a, 0x8c, 0x39, 0x0b, 0x5f, 0x1d, 0x39, 0x12, 0x00, 0x00, 0x00,
  0x74, 0x66, 0x6c, 0x2e, 0x70, 0x73, 0x65, 0x75, 0x64, 0x6f, 0x5f, 0x71,
  0x63, 0x6f, 0x6e, 0x73, 0x74, 0x34, 0x00, 0x00, 0x01, 0x00, 0x00, 0x00,
  0x18, 0x00, 0x00, 0x00, 0x1a, 0xfd, 0xff, 0xff, 0x00, 0x00, 0x00, 0x01,
  0x14, 0x00, 0x00, 0x00, 0xe8, 0x00, 0x00, 0x00, 0x06, 0x00, 0x00, 0x00,
  0x00, 0x00, 0x00, 0x09, 0xf4, 0x00, 0x00, 0x00, 0x94, 0xfc, 0xff, 0xff,
  0x08, 0x00, 0x00, 0x00, 0x8c, 0x00, 0x00, 0x00, 0x10, 0x00, 0x00, 0x00,
  0x00, 0x00, 0x00, 0x00, 0x00, 0x00, 0x00, 0x00, 0x00, 0x00, 0x00, 0x00,
  0x00, 0x00, 0x00, 0x00, 0x00, 0x00, 0x00, 0x00, 0x00, 0x00, 0x00, 0x00,
  0x00, 0x00, 0x00, 0x00, 0x00, 0x00, 0x00, 0x00, 0x00, 0x00, 0x00, 0x00,
  0x00, 0x00, 0x00, 0x00, 0x00, 0x00, 0x00, 0x00, 0x00, 0x00, 0x00, 0x00,
  0x00, 0x00, 0x00, 0x00, 0x00, 0x00, 0x00, 0x00, 0x00, 0x00, 0x00, 0x00,
  0x00, 0x00, 0x00, 0x00, 0x00, 0x00, 0x00, 0x00, 0x00, 0x00, 0x00, 0x00,
  0x00, 0x00, 0x00, 0x00, 0x00, 0x00, 0x00, 0x00, 0x00, 0x00, 0x00, 0x00,
  0x00, 0x00, 0x00, 0x00, 0x00, 0x00, 0x00, 0x00, 0x00, 0x00, 0x00, 0x00,
  0x00, 0x00, 0x00, 0x00, 0x00, 0x00, 0x00, 0x00, 0x00, 0x00, 0x00, 0x00,
  0x00, 0x00, 0x00, 0x00, 0x00, 0x00, 0x00, 0x00, 0x00, 0x00, 0x00, 0x00,
  0x00, 0x00, 0x00, 0x00, 0x00, 0x00, 0x00, 0x00, 0x00, 0x00, 0x00, 0x00,
  0x10, 0x00, 0x00, 0x00, 0xd0, 0x33, 0x4c, 0x3c, 0x17, 0xd0, 0x54, 0x3c,
  0x3a, 0x39, 0x3f, 0x3b, 0x36, 0x8f, 0x1e, 0x3c, 0xf0, 0x6c, 0x3d, 0x3b,
  0x76, 0xd4, 0x76, 0x3c, 0x10, 0xaf, 0x4c, 0x3b, 0xc4, 0x58, 0x46, 0x3b,
  0x9b, 0xce, 0x32, 0x3b, 0x4b, 0xe0, 0x5c, 0x3c, 0x1a, 0x06, 0x45, 0x3b,
  0x68, 0x37, 0x3f, 0x3c, 0x04, 0x7f, 0x11, 0x3c, 0xcc, 0xd5, 0x75, 0x3c,
  0x5f, 0x93, 0x41, 0x3b, 0x0a, 0xa3, 0x3c, 0x3b, 0x12, 0x00, 0x00, 0x00,
  0x74, 0x66, 0x6c, 0x2e, 0x70, 0x73, 0x65, 0x75, 0x64, 0x6f, 0x5f, 0x71,
  0x63, 0x6f, 0x6e, 0x73, 0x74, 0x33, 0x00, 0x00, 0x02, 0x00, 0x00, 0x00,
  0x10, 0x00, 0x00, 0x00, 0x18, 0x00, 0x00, 0x00, 0x32, 0xfe, 0xff, 0xff,
  0x00, 0x00, 0x00, 0x01, 0x14, 0x00, 0x00, 0x00, 0xe4, 0x00, 0x00, 0x00,
  0x05, 0x00, 0x00, 0x00, 0x00, 0x00, 0x00, 0x02, 0xf0, 0x00, 0x00, 0x00,
  0xac, 0xfd, 0xff, 0xff, 0x08, 0x00, 0x00, 0x00, 0x88, 0x00, 0x00, 0x00,
  0x10, 0x00, 0x00, 0x00, 0x00, 0x00, 0x00, 0x00, 0x00, 0x00, 0x00, 0x00,
  0x00, 0x00, 0x00, 0x00, 0x00, 0x00, 0x00, 0x00, 0x00, 0x00, 0x00, 0x00,
  0x00, 0x00, 0x00, 0x00, 0x00, 0x00, 0x00, 0x00, 0x00, 0x00, 0x00, 0x00,
  0x00, 0x00, 0x00, 0x00, 0x00, 0x00, 0x00, 0x00, 0x00, 0x00, 0x00, 0x00,
  0x00, 0x00, 0x00, 0x00, 0x00, 0x00, 0x00, 0x00, 0x00, 0x00, 0x00, 0x00,
  0x00, 0x00, 0x00, 0x00, 0x00, 0x00, 0x00, 0x00, 0x00, 0x00, 0x00, 0x00,
  0x00, 0x00, 0x00, 0x00, 0x00, 0x00, 0x00, 0x00, 0x00, 0x00, 0x00, 0x00,
  0x00, 0x00, 0x00, 0x00, 0x00, 0x00, 0x00, 0x00, 0x00, 0x00, 0x00, 0x00,
  0x00, 0x00, 0x00, 0x00, 0x00, 0x00, 0x00, 0x00, 0x00, 0x00, 0x00, 0x00,
  0x00, 0x00, 0x00, 0x00, 0x00, 0x00, 0x00, 0x00, 0x00, 0x00, 0x00, 0x00,
  0x00, 0x00, 0x00, 0x00, 0x00, 0x00, 0x00, 0x00, 0x00, 0x00, 0x00, 0x00,
  0x10, 0x00, 0x00, 0x00, 0x5a, 0xfb, 0x23, 0x39, 0x77, 0xe5, 0x2a, 0x39,
  0x32, 0x8f, 0x19, 0x38, 0x65, 0xa8, 0xfe, 0x38, 0x91, 0x1d, 0x18, 0x38,
  0x9a, 0x36, 0x46, 0x39, 0x53, 0x5e, 0x24, 0x38, 0x90, 0x47, 0x1f, 0x38,
  0xa6, 0x96, 0x0f, 0x38, 0x18, 0x5f, 0x31, 0x39, 0x9b, 0x37, 0x1e, 0x38,
  0xbc, 0x8d, 0x19, 0x39, 0x61, 0xad, 0xe9, 0x38, 0x18, 0x6a, 0x45, 0x39,
  0xbd, 0x72, 0x1b, 0x38, 0x70, 0x7b, 0x17, 0x38, 0x12, 0x00, 0x00, 0x00,
  0x74, 0x66, 0x6c, 0x2e, 0x70, 0x73, 0x65, 0x75, 0x64, 0x6f, 0x5f, 0x71,
  0x63, 0x6f, 0x6e, 0x73, 0x74, 0x32, 0x00, 0x00, 0x01, 0x00, 0x00, 0x00,
  0x10, 0x00, 0x00, 0x00, 0x42, 0xff, 0xff, 0xff, 0x00, 0x00, 0x00, 0x01,
  0x14, 0x00, 0x00, 0x00, 0x30, 0x00, 0x00, 0x00, 0x04, 0x00, 0x00, 0x00,
  0x00, 0x00, 0x00, 0x09, 0x3c, 0x00, 0x00, 0x00, 0xbc, 0xfe, 0xff, 0xff,
  0x08, 0x00, 0x00, 0x00, 0x10, 0x00, 0x00, 0x00, 0x01, 0x00, 0x00, 0x00,
  0x00, 0x00, 0x00, 0x00, 0x00, 0x00, 0x00, 0x00, 0x01, 0x00, 0x00, 0x00,
  0xdd, 0x61, 0x46, 0x3c, 0x12, 0x00, 0x00, 0x00, 0x74, 0x66, 0x6c, 0x2e,
  0x70, 0x73, 0x65, 0x75, 0x64, 0x6f, 0x5f, 0x71, 0x63, 0x6f, 0x6e, 0x73,
  0x74, 0x31, 0x00, 0x00, 0x02, 0x00, 0x00, 0x00, 0x01, 0x00, 0x00, 0x00,
  0x10, 0x00, 0x00, 0x00, 0xa2, 0xff, 0xff, 0xff, 0x00, 0x00, 0x00, 0x01,
  0x14, 0x00, 0x00, 0x00, 0x30, 0x00, 0x00, 0x00, 0x03, 0x00, 0x00, 0x00,
  0x00, 0x00, 0x00, 0x02, 0x3c, 0x00, 0x00, 0x00, 0x1c, 0xff, 0xff, 0xff,
  0x08, 0x00, 0x00, 0x00, 0x10, 0x00, 0x00, 0x00, 0x01, 0x00, 0x00, 0x00,
  0x00, 0x00, 0x00, 0x00, 0x00, 0x00, 0x00, 0x00, 0x01, 0x00, 0x00, 0x00,
  0xcc, 0x88, 0x25, 0x39, 0x11, 0x00, 0x00, 0x00, 0x74, 0x66, 0x6c, 0x2e,
  0x70, 0x73, 0x65, 0x75, 0x64, 0x6f, 0x5f, 0x71, 0x63, 0x6f, 0x6e, 0x73,
  0x74, 0x00, 0x00, 0x00, 0x01, 0x00, 0x00, 0x00, 0x01, 0x00, 0x00, 0x00,
  0x00, 0x00, 0x16, 0x00, 0x1c, 0x00, 0x18, 0x00, 0x17, 0x00, 0x10, 0x00,
  0x0c, 0x00, 0x08, 0x00, 0x00, 0x00, 0x00, 0x00, 0x00, 0x00, 0x07, 0x00,
  0x16, 0x00, 0x00, 0x00, 0x00, 0x00, 0x00, 0x01, 0x18, 0x00, 0x00, 0x00,
  0x18, 0x00, 0x00, 0x00, 0x02, 0x00, 0x00, 0x00, 0x00, 0x00, 0x00, 0x02,
  0x20, 0x00, 0x00, 0x00, 0x04, 0x00, 0x04, 0x00, 0x04, 0x00, 0x00, 0x00,
  0x0e, 0x00, 0x00, 0x00, 0x61, 0x72, 0x69, 0x74, 0x68, 0x2e, 0x63, 0x6f,
  0x6e, 0x73, 0x74, 0x61, 0x6e, 0x74, 0x00, 0x00, 0x01, 0x00, 0x00, 0x00,
  0x02, 0x00, 0x00, 0x00, 0x00, 0x00, 0x16, 0x00, 0x20, 0x00, 0x1c, 0x00,
  0x1b, 0x00, 0x14, 0x00, 0x10, 0x00, 0x0c, 0x00, 0x00, 0x00, 0x00, 0x00,
  0x08, 0x00, 0x07, 0x00, 0x16, 0x00, 0x00, 0x00, 0x00, 0x00, 0x00, 0x01,
  0x18, 0x00, 0x00, 0x00, 0x34, 0x00, 0x00, 0x00, 0x50, 0x00, 0x00, 0x00,
  0x01, 0x00, 0x00, 0x00, 0x00, 0x00, 0x00, 0x09, 0x6c, 0x00, 0x00, 0x00,
  0x04, 0x00, 0x00, 0x00, 0xff, 0xff, 0xff, 0xff, 0x60, 0x00, 0x00, 0x00,
  0x60, 0x00, 0x00, 0x00, 0x01, 0x00, 0x00, 0x00, 0x0c, 0x00, 0x0c, 0x00,
  0x00, 0x00, 0x00, 0x00, 0x08, 0x00, 0x04, 0x00, 0x0c, 0x00, 0x00, 0x00,
  0x08, 0x00, 0x00, 0x00, 0x10, 0x00, 0x00, 0x00, 0x01, 0x00, 0x00, 0x00,
  0x80, 0xff, 0xff, 0xff, 0xff, 0xff, 0xff, 0xff, 0x01, 0x00, 0x00, 0x00,
  0xa8, 0x73, 0xa0, 0x3b, 0x20, 0x00, 0x00, 0x00, 0x73, 0x65, 0x72, 0x76,
  0x69, 0x6e, 0x67, 0x5f, 0x64, 0x65, 0x66, 0x61, 0x75, 0x6c, 0x74, 0x5f,
  0x6b, 0x65, 0x72, 0x61, 0x73, 0x5f, 0x74, 0x65, 0x6e, 0x73, 0x6f, 0x72,
  0x5f, 0x36, 0x3a, 0x30, 0x00, 0x00, 0x00, 0x00, 0x04, 0x00, 0x00, 0x00,
  0x01, 0x00, 0x00, 0x00, 0x60, 0x00, 0x00, 0x00, 0x60, 0x00, 0x00, 0x00,
  0x01, 0x00, 0x00, 0x00, 0x05, 0x00, 0x00, 0x00, 0x60, 0x00, 0x00, 0x00,
  0x40, 0x00, 0x00, 0x00, 0x2c, 0x00, 0x00, 0x00, 0x18, 0x00, 0x00, 0x00,
  0x04, 0x00, 0x00, 0x00, 0xc0, 0xff, 0xff, 0xff, 0x0e, 0x00, 0x00, 0x00,
  0x02, 0x00, 0x00, 0x00, 0x00, 0x00, 0x00, 0x0e, 0xd0, 0xff, 0xff, 0xff,
  0x09, 0x00, 0x00, 0x00, 0x04, 0x00, 0x00, 0x00, 0x00, 0x00, 0x00, 0x09,
  0xe0, 0xff, 0xff, 0xff, 0x28, 0x00, 0x00, 0x00, 0x02, 0x00, 0x00, 0x00,
  0x00, 0x00, 0x00, 0x28, 0xf0, 0xff, 0xff, 0xff, 0x11, 0x00, 0x00, 0x00,
  0x02, 0x00, 0x00, 0x00, 0x00, 0x00, 0x00, 0x11, 0x0c, 0x00, 0x10, 0x00,
  0x0f, 0x00, 0x00, 0x00, 0x08, 0x00, 0x04, 0x00, 0x0c, 0x00, 0x00, 0x00,
  0x03, 0x00, 0x00, 0x00, 0x03, 0x00, 0x00, 0x00, 0x00, 0x00, 0x00, 0x03
};
unsigned int cnn_int8_tflite_len = 11256;
